/**
  ******************************************************************************
  * @file    ecg_model_data_params.c
  * @author  AST Embedded Analytics Research Platform
  * @date    2026-04-16T14:51:11-0700
  * @brief   AI Tool Automatic Code Generator for Embedded NN computing
  ******************************************************************************
  * Copyright (c) 2026 STMicroelectronics.
  * All rights reserved.
  *
  * This software is licensed under terms that can be found in the LICENSE file
  * in the root directory of this software component.
  * If no LICENSE file comes with this software, it is provided AS-IS.
  ******************************************************************************
  */

#include "ecg_model_data_params.h"


/**  Activations Section  ****************************************************/
ai_handle g_ecg_model_activations_table[1 + 2] = {
  AI_HANDLE_PTR(AI_MAGIC_MARKER),
  AI_HANDLE_PTR(NULL),
  AI_HANDLE_PTR(AI_MAGIC_MARKER),
};




/**  Weights Section  ********************************************************/
AI_ALIGNED(32)
const ai_u64 s_ecg_model_weights_array_u64[8178] = {
  0xbe39b21ebdd44a40U, 0xbe9048a0be9ccddeU, 0xbe5a66fdbe1693dcU, 0x3e8b222a3cbc7a09U,
  0x3e2144ae3e20fbdfU, 0xbe4fd6123caabf7fU, 0xbe378aebbe98bb26U, 0x3ebd65083e2bebb9U,
  0x3d5edf7bbdba131bU, 0xbe6b0a6bbe4a117bU, 0x3d738e27bbc7ddbfU, 0x3e1ca71e3e932a8bU,
  0x3e67e35c3e4a2da8U, 0x3e80765f3e546aaaU, 0xbea168b9be402880U, 0xbe908f7ebeb215d1U,
  0xbe5df36dbe7624f9U, 0x3d578c17bbcc2723U, 0xbdbef728bdba33f4U, 0xbe65c32abe49d9f8U,
  0x3df21faabe016de4U, 0x3ed91aa4bd2e567bU, 0xbeb957d23e6e97c2U, 0xbe6e91e1be9f4815U,
  0x3ce51d9cbec4df07U, 0x3e2eedcc3e4a95beU, 0x3f0c817c3f223a7dU, 0x3dfb719c3e97d36aU,
  0xbe03563c3e56888bU, 0x3c6a6573be2037a2U, 0x3ddc3f73bda39968U, 0xbdc192973d323581U,
  0x3e8c4e74be537cffU, 0x3eccd1f53eeda4c0U, 0xbecfcb98be74960fU, 0x3dbba767be93c37cU,
  0xbede705dbebfef40U, 0xbe9bcd84beb01a16U, 0xbe5e26dcbea99d92U, 0x3e863a87bd1ef4b8U,
  0xbe04cd703e4d2aa8U, 0x3e70b6d33c139c6fU, 0x3ea884d93edc7136U, 0xbe636fe93eca3094U,
  0xbf07c68bbf0ab644U, 0x3dca56e5bc85db4fU, 0xbe9f9b85be47e971U, 0x3e42445d3d9c8a1cU,
  0xbe5c12e2bde9eba5U, 0x3eaf5a0a3d9ca805U, 0xbea54876bda90b7cU, 0xbea169ecbd6ee3a3U,
  0xbe9c96e1bc5bde35U, 0xbd19936fbe380fa6U, 0xbdf4cd15bc8b1742U, 0xbe294bd53d9a85c2U,
  0xbe80879cbe430303U, 0x3bbccc5b3dc2e684U, 0xbdd7ce8e3c90bea6U, 0x3c0b935cbe6a633dU,
  0xbe86b1223e064d2fU, 0xbeab4ecdbdee3991U, 0x3ef325583e4ce919U, 0xbe031d73bea59bb3U,
  0xbe84e0d4bea9065bU, 0x3cedd8813da2658cU, 0x3eff19d03e9488e1U, 0x3de193e63da4725bU,
  0xbcc8a2abbd17f0f3U, 0x3e44ba843e0aa527U, 0x3e96bb783e5008eaU, 0x3e0ef4053dd8db2dU,
  0xbbb88f253e305e13U, 0x3db502ec3dff1dbdU, 0x3e51477e3debae42U, 0xbbe73a8bbbc1c023U,
  0x3c6ee54b3e467ce2U, 0x3d09ad31bd64fe1fU, 0x3de7ce2cbd20488fU, 0x3dfafaa13e331a41U,
  0xbe091639bd028f12U, 0x3e1cabaf3d36c84cU, 0xbd36c84cbdeb0186U, 0xbe3d4f733e2332d6U,
  0xbdddf3383d50e4e9U, 0x3e162487bdc3d69aU, 0x3dddf338bd8f9d60U, 0x3bd0e4e93d828f12U,
  0xbd8f9d603d6b0186U, 0xbdeb0186bc50e4e9U, 0x3d028f123da9b9fdU, 0xbe50e4e93bd0e4e9U,
  0x3d50e4e93e2332d6U, 0xbe091639be091639U, 0x3cd0e4e93c50e4e9U, 0x3e028f12bcd0e4e9U,
  0xbc50e4e9bdc3d69aU, 0x3c50e4e9bda9b9fdU, 0x3bd0e4e9bd828f12U, 0x3d9cabaf3e4a5dc2U,
  0xbd1cabaf3d8f9d60U, 0x3da9b9fd00000000U, 0xbd36c84cbd1cabafU, 0xbd6b018600000000U,
  0xbdf80fd5be36c84cU, 0xbd1cabaf3da9b9fdU, 0xbdf80fd5be6b0186U, 0x3d50e4e93d8f9d60U,
  0x3e0f9d60be091639U, 0xbd828f123c50e4e9U, 0xbda9b9fdbdb6c84cU, 0x3bd0e4e9bd1cabafU,
  0x3da9b9fd3c9cabafU, 0x3da9b9fdbdb6c84cU, 0xbe8f9d60bdf80fd5U, 0xbc9cabaf3e028f12U,
  0x3cd0e4e9be091639U, 0x3d50e4e93d36c84cU, 0xbd028f123d828f12U, 0xbd36c84cbe0f9d60U,
  0xbd828f123bd0e4e9U, 0xbd028f12bcd0e4e9U, 0xbd8f9d603d028f12U, 0xbe028f123c50e4e9U,
  0xbdf80fd53d9cabafU, 0x3d1cabafbd36c84cU, 0x3c9cabafbdb6c84cU, 0xbe028f123da9b9fdU,
  0xbe0f9d603c9cabafU, 0xbdddf338bd1cabafU, 0xbd8f9d60bd8f9d60U, 0xbe7e96fcbdeb0186U,
  0xbf4f431f3bd0e4e9U, 0xbd9cabafbdd0e4e9U, 0xbd028f123db6c84cU, 0xbe3d4f73bdeb0186U,
  0xbd50e4e93e0f9d60U, 0xbcd0e4e900000000U, 0x3deb01863e7e96fcU, 0xbef188ad3e2332d6U,
  0xbee47a5f3db6c84cU, 0xbe43d69abd8f9d60U, 0x3e50e4e900000000U, 0xbdeb01863d8f9d60U,
  0x3e6b0186bc50e4e9U, 0xbe647a5f3deb0186U, 0xbcd0e4e93e36c84cU, 0x3d50e4e9bd1cabafU,
  0x3e8916393db6c84cU, 0xbe50e4e9bc9cabafU, 0xbdf80fd53d1cabafU, 0x3e0f9d603d028f12U,
  0x3e3b9dbeU, 0x3df08898be15217dU, 0xbe0b826dbddd4a77U, 0xbdcedbdfbdc53cceU,
  0xbe0b826d3e239015U, 0xbc86b2e4bcc06d46U, 0x3e12b9b93d36ce36U, 0x3be6e988bde6e988U,
  0x3d95217d3dfa27a8U, 0x3da39015bd7a27a8U, 0x3d9ec08d3d66e988U, 0xbe708898bb99f105U,
  0xbe7c8f6c3dfa27a8U, 0x3d2d2f26bb99f105U, 0x3d36ce363d8b826dU, 0xbc86b2e43d5d4a77U,
  0x3d53ab673dd3ab67U, 0x3df55820bdc53cceU, 0x3d7088983d406d46U, 0xbd7088983d53ab67U,
  0xbe98bd233dbb9dbeU, 0x3da85f9dbd5d4a77U, 0x3de219ff3cc06d46U, 0xbdca0c57bdd87aefU,
  0x3cfa27a83d239015U, 0x3d4a0c57bd86b2e4U, 0xbb99f105bdbb9dbeU, 0x3cc06d463d8b826dU,
  0xbe3b9dbe3de6e988U, 0xbe01e35cbce6e988U, 0x3b99f105bde6e988U, 0x3c19f1053d06b2e4U,
  0x3dad2f26bde6e988U, 0xbd2390153d19f105U, 0xbc406d46be0b826dU, 0xbd5d4a77bdfef730U,
  0xbd1051f5be1051f5U, 0xbd19f105bd8b826dU, 0xbd5d4a77be091aa8U, 0x3da3901500000000U,
  0xbc19f105bd66e988U, 0xbe178941bd4a0c57U, 0xbd06b2e4be12b9b9U, 0x3d7a27a8bcd3ab67U,
  0xbc86b2e4be31feaeU, 0xbda85f9d3ce6e988U, 0xbdd3ab67bd66e988U, 0x3c66e988be42d50aU,
  0x3e285f9dbd8b826dU, 0xbd53ab673d2d2f26U, 0xbd4a0c573d7a27a8U, 0x3d36ce363dcedbdfU,
  0xbcd3ab67bd708898U, 0xbe31feaebda85f9dU, 0xbdc06d46be1c58c9U, 0xbd7a27a83c99f105U,
  0x3e1ec08dbdc53cceU, 0xbdbb9dbe3d99f105U, 0x3be6e988bc99f105U, 0xbd95217d3d8b826dU,
  0xbe044b203d2d2f26U, 0xbdbb9dbe3c86b2e4U, 0xbdbb9dbe3d2d2f26U, 0x3d36ce363d8b826dU,
  0x3cc06d46bd36ce36U, 0xbdcedbdf3c86b2e4U, 0x3e06b2e43da39015U, 0x3debb9103ce6e988U,
  0xbbe6e988be0dea31U, 0xbd239015bdd3ab67U, 0x3cd3ab67bd406d46U, 0x3debb910bc19f105U,
  0x3d87684f3e6e6f53U, 0x3e2abb2cbe01852aU, 0xbc8d4b743e01852aU, 0xbe1ef4e2bd53f12dU,
  0xbebaebd13e659a9cU, 0x3b3c649a3e338fe3U, 0x3e24d8073e07684fU, 0xbdb09e503cd3f12dU,
  0x3e21e6743e62a909U, 0x3da4d807bcd3f12dU, 0xbd53f12d3c6b7dc0U, 0xbd9ef4e2be338fe3U,
  0x3ca4d8073e7d272fU, 0x3e01852a3dbc649aU, 0x3e4539513e1ef4e2U, 0xbe07684f3ceb7dc0U,
  0xbca4d807bd3c649aU, 0x3d77440abdf7440aU, 0xbd53f12d3d87684fU, 0x3dfd272fbdf7440aU,
  0xbd309e503d24d807U, 0xbe4539513e4247bfU, 0x3e1ef4e23d87684fU, 0x3c0d4b743e07684fU,
  0xbdf7440abe309e50U, 0xbdb09e50bc3c649aU, 0x3d9ef4e23e0476bcU, 0xbd6b7dc0bbbc649aU,
  0x3d9911bd3d3c649aU, 0xbdc247bf3c6b7dc0U, 0x3dc247bf3d24d807U, 0xbd24d8073c3c649aU,
  0xbd3c649a3bbc649aU, 0x3df7440abe2abb2cU, 0x3d309e50be01852aU, 0xbdfd272fbd01852aU,
  0xbe103d0600000000U, 0x3e0476bcbdc82ae4U, 0xbdeb7dc0be0476bcU, 0x3ceb7dc03dbc649aU,
  0xbde59a9cbdd9d452U, 0xbdc82ae4be482ae4U, 0xbde59a9cbd01852aU, 0xbe5fb7773b3c649aU,
  0xbcbc649abd87684fU, 0xbb3c649abe453951U, 0x3b3c649abbbc649aU, 0xbe132e98bd5fb777U,
  0xbc0d4b743d0d4b74U, 0xbe3c649abc0d4b74U, 0x3bbc649abd24d807U, 0xbdd9d452bb3c649aU,
  0x3bbc649a3d9911bdU, 0xbd9ef4e2bdb68175U, 0xbc6b7dc0bd932e98U, 0xbe16202bbd6b7dc0U,
  0xbddfb7773db68175U, 0xbe745278bd309e50U, 0x3e2abb2c3e56e2c0U, 0x3d5fb777bbbc649aU,
  0xbc6b7dc0be21e674U, 0xbe4539513c3c649aU, 0x3d24d807bd3c649aU, 0x3e309e50U,
  0x3ea35f3ebe4b1c76U, 0xbd9911bdbe0d4b74U, 0x3d81852abc6b7dc0U, 0x3d3c649abdaabb2cU,
  0x3e53f12dbe7160e5U, 0xbe659a9c3c6b7dc0U, 0xbdc82ae4bd24d807U, 0xbe01852a3e8ec43dU,
  0xbecdc9cbbd9a5758U, 0xbdab7d7ebd9a5758U, 0xbf881ed0bf4536b8U, 0x3d0931323d093132U,
  0x3e1a5758be2b7d7eU, 0x3dbca3a5be2b7d7eU, 0xbe565cdebdbca3a5U, 0xbf701618U,
  0xbe9a5758bdbca3a5U, 0x3d2b7d7ebf341092U, 0xbf4dc9cbbec536b8U, 0xbc0931323d9a5758U,
  0xbd9a5758bd2b7d7eU, 0xbd2b7d7ebd4dc9cbU, 0xbd9a5758bc093132U, 0xbe809e1fbf183293U,
  0xbdcdc9cb3d2b7d7eU, 0xbc893132bedaa668U, 0xbd9a57583e11c445U, 0xbe84e7a8be093132U,
  0xbf1ea0e23e22ea6bU, 0x3df016183d701618U, 0x3c8931323dab7d7eU, 0xbec536b8bdcdc9cbU,
  0xbd8931323d2b7d7eU, 0x3c0931323c093132U, 0x3e22ea6b3e701618U, 0xbf385a1bbd701618U,
  0xbf63397b3d701618U, 0xbd701618bd4dc9cbU, 0x3df01618bd9a5758U, 0xbe8931323e78a92bU,
  0xbd2b7d7e3d2b7d7eU, 0xbe34109200000000U, 0xbc893132bdab7d7eU, 0xbe009e1fbec536b8U,
  0xbc0931323ccdc9cbU, 0xbdf01618bd093132U, 0xbe093132be2b7d7eU, 0x3d4dc9cb3e009e1fU,
  0xbe1a5758be4dc9cbU, 0xbdcdc9cbbd4dc9cbU, 0xbd2b7d7ebc893132U, 0x3e4536b8be3ca3a5U,
  0x3c893132bdab7d7eU, 0xbe22ea6b3dbca3a5U, 0x3ddeeff1be341092U, 0x3d9a5758bd4dc9cbU,
  0x3ccdc9cbbdab7d7eU, 0x3df016183d701618U, 0x3e0931323d9a5758U, 0x3d9a5758bd4dc9cbU,
  0xbd9a5758bdcdc9cbU, 0x3d8931323e1a5758U, 0x3d7016183e4dc9cbU, 0x3dbca3a53d701618U,
  0x3e11c4453dab7d7eU, 0x3d9a57583e678304U, 0x3e4dc9cb3e8d7abcU, 0x3e4dc9cbbccdc9cbU,
  0x3e1a5758bd4dc9cbU, 0x3e4536b83e701618U, 0x3dcdc9cb3e2b7d7eU, 0x3dcdc9cb3e009e1fU,
  0x3d4dc9cb3ddeeff1U, 0x3e009e1f3e3ca3a5U, 0xbe009e1fbc093132U, 0x3e565cde3d893132U,
  0x3e5eeff13d893132U, 0x3e565cde3e4536b8U, 0xbe1a57583e2b7d7eU, 0x3c8931323ccdc9cbU,
  0xbda6c508be4eeafcU, 0xbe3c63503d5e5c0bU, 0xbe0e1023be29dba5U, 0xbe802a63be363617U,
  0x3d2097cfbe802a63U, 0xbebad802be1126c0U, 0xbe48bdc3be7a278cU, 0x3b45a726be9d8132U,
  0xbe648944bda097cfU, 0xbea539babdd20198U, 0xbd7710f0bd8e1023U, 0xbdacf2413e3f79edU,
  0xbb45a7263d520198U, 0xbec41bd8be23ae6bU, 0x3d5e5c0bbe2cf241U, 0x3e01b5b1bd2097cfU,
  0x3d87e2eaU, 0xbe9d81323cacf241U, 0x3d2097cf3d394cb4U, 0xbcde5c0b3d5e5c0bU,
  0xbcde5c0bbd87e2eaU, 0xbdd82ed2be5b456eU, 0x3dbf79edbe9753f9U, 0x3deab67d3d943d5cU,
  0x3dc5a726bd8e1023U, 0xbe896e383cde5c0bU, 0x3d394cb43d143d5cU, 0x3d143d5c3bc5a726U,
  0x3e1a6a96bdcbd45fU, 0xbdc5a726bdacf241U, 0xbdd20198be84cc4eU, 0x3dc5a726bbc5a726U,
  0xbd2097cf3dbf79edU, 0xbdb31f7a3dfd3e29U, 0x3d81b5b1bb45a726U, 0x3e26c508bdfd3e29U,
  0x3cc5a726be143d5cU, 0xbdb31f7abd8e1023U, 0x3d143d5cbe04cc4eU, 0xbd8e1023bdc5a726U,
  0x3dbf79edbd45a726U, 0x3c7710f0bcde5c0bU, 0x3d143d5cbcf710f0U, 0x3c45a7263e1753f9U,
  0x3d943d5c3cacf241U, 0xbc143d5c3e4eeafcU, 0x3cf710f03dcbd45fU, 0xbe0af9873dacf241U,
  0x3e3c6350bdeab67dU, 0x3dd82ed2bdbf79edU, 0x3d143d5cbda097cfU, 0x3dbf79ed3d6ab67dU,
  0x3d943d5cbd2cf241U, 0x3e0e10233cacf241U, 0x3d45a726bbc5a726U, 0x3bc5a7263db31f7aU,
  0xbc45a7263d2097cfU, 0x3d143d5c3dcbd45fU, 0x3cc5a726be3008deU, 0x3c143d5cbdd20198U,
  0x3d5e5c0b3c943d5cU, 0x3dfd3e29bd943d5cU, 0x3e4eeafc3df0e3b6U, 0xbd81b5b1bdd82ed2U,
  0x3e04cc4e3c7710f0U, 0x3d394cb4bdacf241U, 0xbdc5a7263de48944U, 0x3c7710f0bd45a726U,
  0x3e331f7a3dcbd45fU, 0x3d6ab67d3cacf241U, 0xbd2097cf3e26c508U, 0xbe3f79edbdc5a726U,
  0xbdebc52fbdccbf73U, 0xbb94e8543dccbf73U, 0xbe1e36d9bcebc52fU, 0x3e087fa23dcfd99fU,
  0x3cebc52fbe357b26U, 0xbdebc52f3d4056c1U, 0xbd7e62393d1b1cacU, 0xbd024b49bda15105U,
  0x3d824b49bd1b1cacU, 0xbd3a22683cadb9b7U, 0xbd94e854bc782de0U, 0x3d52f3cc3e0eb3fbU,
  0xbe104111be00be33U, 0xbe2912743bc68b1aU, 0x3d27855ebe1fc3efU, 0xbdc9a546be3ec9abU,
  0x3d91ce27bdb0d3e3U, 0xbdfe6239bdd60df8U, 0x3d52f3ccbddf5c7dU, 0xbc887fa2bd0eb3fbU,
  0xbd592824be389552U, 0x3cd2f3ccbd2db9b7U, 0xbd33ee10bdd2f3ccU, 0xbd468b1a3d782de0U,
  0xbe3895523cd2f3ccU, 0xbd024b49bd8eb3fbU, 0xbe0eb3fbbd782de0U, 0x3d215105bdb7083cU,
  0xbd94e8543cebc52fU, 0xbd6bc52fbd4056c1U, 0xbd14e854bd71f988U, 0x3dadb9b7bca15105U,
  0x3ca15105be2c2ca1U, 0x3ac68b1abb468b1aU, 0xbcba22683d4cbf73U, 0x3da151053e056575U,
  0xbc5f5c7dbc887fa2U, 0xbc14e8543c94e854U, 0xbd3a2268be33ee10U, 0x3daa9f8abd27855eU,
  0xbac68b1abd5f5c7dU, 0xbe16756a3d33ee10U, 0xbbf82de03ddc4251U, 0xbe22de1b3dbd3c95U,
  0xbd2db9b73ca15105U, 0xbd33ee10bda7855eU, 0xbe104111bd824b49U, 0xbb468b1a3dd92824U,
  0xbb468b1a3d4cbf73U, 0xbdc056c13df513b4U, 0x3e1802803ac68b1aU, 0x3d8eb3fb3c468b1aU,
  0x3d94e854be11ce27U, 0xbcba22683cadb9b7U, 0xbdb7083c3ac68b1aU, 0xbc782de03ddf5c7dU,
  0xbd5928243c2db9b7U, 0xbd6590d63c2db9b7U, 0x3d4056c13bf82de0U, 0xbe22de1bbd4056c1U,
  0x3d824b493bf82de0U, 0xbe03d85f3cdf5c7dU, 0xbdf513b43ac68b1aU, 0x3ddc4251bd024b49U,
  0x3db7083cbd7e6239U, 0xbddf5c7d3d592824U, 0x3d14e8543d33ee10U, 0xbd782de03d27855eU,
  0x3b468b1a3dbd3c95U, 0x3d782de0bde276aaU, 0xbdeedf5bbdf1f988U, 0x3e44fe043de276aaU,
  0x3bc0bac5bc908c14U, 0x3da8a36cbb40bac5U, 0xbe138effbebf394fU, 0xbdd8d21ebc40bac5U,
  0x3cc0bac5be229d96U, 0xbda29d963d34af19U, 0xbd048067bdc6c09bU, 0x3e25a081be9f9aabU,
  0x3c908c14bcd8d21eU, 0xbe017d7cbda8a36cU, 0xbe28a36cbe76ef4cU, 0x3e017d7c3dd8d21eU,
  0xbdf6ef4cbca8a36cU, 0x3d7cf523bd9c97c0U, 0x3c108c143dc0bac5U, 0xbbc0bac5bea8a36cU,
  0x3e1f9aab3dc0bac5U, 0x3d7cf5233daea943U, 0x3d34af19bdc0bac5U, 0xbdd8d21e3e3db7daU,
  0xbeb02ab8bc108c14U, 0xbe1f9aabbcd8d21eU, 0x3e25a0813dded7f4U, 0x3d64ddca3bc0bac5U,
  0x3e3db7da3cd8d21eU, 0xbc70e976bda8a36cU, 0xbd0480673d28a36cU, 0x3dfcf5233d40bac5U,
  0x3da8a36cbdbab4efU, 0xbe1691ea3d1c97c0U, 0x3cc0bac5bd108c14U, 0x3d1c97c0bdc0bac5U,
  0x3d908c14bdc0bac5U, 0xbd4cc6713dded7f4U, 0xbb40bac5be138effU, 0x3d70e9763d1c97c0U,
  0x3dc6c09b3ca8a36cU, 0xbda8a36cbe1c97c0U, 0x3cf0e976be1c97c0U, 0xbd70e976bca8a36cU,
  0xbcd8d21e3dd2cc47U, 0xbd7cf5233deae3a0U, 0x3d28a36c3deae3a0U, 0x3cd8d21e3e048067U,
  0x3cd8d21e3cc0bac5U, 0xbdeae3a0be078353U, 0xbc108c14bcd8d21eU, 0x3c40bac5bd1c97c0U,
  0x3d9691eabd848067U, 0xbdf6ef4c3d34af19U, 0xbda29d963c70e976U, 0xbca8a36cbd7cf523U,
  0x3c70e9763c108c14U, 0xbd048067bbc0bac5U, 0xbcf0e976bd7cf523U, 0xbd28a36cbd64ddcaU,
  0x3dd8d21e3e1f9aabU, 0xbd58d21ebc40bac5U, 0x3c108c143d58d21eU, 0x3dfcf5233d9c97c0U,
  0x3dbab4ef3dfcf523U, 0x3c908c143dd8d21eU, 0x3e078353bd7cf523U, 0xbcc0bac53d9c97c0U,
  0x3e0a863e3cd8d21eU, 0x3e2ba657bb40bac5U, 0xbdb4af193e1691eaU, 0x3e37b2043e1691eaU,
  0x3da29d963d40bac5U, 0x3d64ddca3e6ae3a0U, 0x3d108c143dccc671U, 0xbd048067bd848067U,
  0x3ec3f3823e9d2b51U, 0x3e12f6a2be06b76aU, 0x3e7d1a893e82a257U, 0x3e68b12b3e5447cdU,
  0x3ebdd3e63e8097ceU, 0x3cc3f382bcc3f382U, 0x3db39f38bd5447cdU, 0xbd82a2573e0ee18fU,
  0x3e1b20c7bdd447cdU, 0xbd12f6a2bc82a257U, 0x3e9d2b513e649c18U, 0x3e6cc63e3e68b12bU,
  0x3e43f3823d12f6a2U, 0xbd82a2573d234aedU, 0x3df4f0633c02a257U, 0x3ce49c183e7d1a89U,
  0x3e5c71f33d234aedU, 0x3d43f382bdb39f38U, 0x3e1b20c73e1f35daU, 0x3d43f3823dcc1da8U,
  0x3decc63ebd9b20c7U, 0x3c82a257bd8acc7cU, 0xbcc3f382bd5447cdU, 0xbe1f35da3e99163eU,
  0x3e7d1a89bc82a257U, 0x3e170bb53d5447cdU, 0x3e339f383c82a257U, 0x3e0ee18fbd8acc7cU,
  0xbe480895bd5447cdU, 0x3e339f38bdab7512U, 0x3d74f0633dfd1a89U, 0xbe0ee18f3db39f38U,
  0x3dcc1da8bd339f38U, 0x3d5447cd3e1f35daU, 0x3cc3f3823d74f063U, 0xbe8acc7cbd02a257U,
  0xbe0ee18f3e234aedU, 0x3d649c183c02a257U, 0xbd12f6a23dd447cdU, 0xbd12f6a23d234aedU,
  0xbe37b44abca34aedU, 0xbdd447cd3da34aedU, 0x3d92f6a2bdcc1da8U, 0xbe0acc7c3c02a257U,
  0xbe12f6a23d74f063U, 0xbe1f35da3cc3f382U, 0x3c02a257bd8acc7cU, 0xbd5447cd3e12f6a2U,
  0xbf019d12bc02a257U, 0xbe5032bbbd339f38U, 0xbd8acc7c3d12f6a2U, 0xbd8acc7cbdcc1da8U,
  0xbe68b12b3dab7512U, 0xbe7d1a89be74f063U, 0xbe1b20c7bd43f382U, 0xbc43f3823d234aedU,
  0xbe90ec19bda34aedU, 0xbe585ce03d234aedU, 0xbe234aedU, 0xbeb7b44abce49c18U,
  0xbe84ace0bd649c18U, 0xbe0ee18fbdb39f38U, 0xbdfd1a89be2b7512U, 0x3cc3f3823c82a257U,
  0xbe02a257be4c1da8U, 0xbc82a2573d5447cdU, 0xbca34aedbd8acc7cU, 0xbeaf8a253c82a257U,
  0xbea75fffbe2f8a25U, 0xbe2f8a25be170bb5U, 0xbe99163ebe1b20c7U, 0x3c43f382be275fffU,
  0x3d7c3abc3ceef446U, 0x3d98aa493c1f4d84U, 0xbd12070fbc84c099U, 0x3da5f0bf3d54675bU,
  0xbcd4675b3d9f4d84U, 0x3b54675bbdcdc420U, 0xbc1f4d843cb9da70U, 0x3cd4675b3c54675bU,
  0x3e25f0bfbd2c93faU, 0xbd8b63d4bc9f4d84U, 0xbc54675b3bd4675bU, 0x3dcdc4203cb9da70U,
  0x3e1558acbdac93faU, 0x3bd4675bbd4720e5U, 0xbd2c93fabceef446U, 0xbd54675b3dac93faU,
  0xbcd4675bbdeef446U, 0xbdeef446bd2c93faU, 0xbb54675b3cb9da70U, 0x3e25f0bf3d84c099U,
  0xbcb9da703d12070fU, 0x3c84c0993cb9da70U, 0x3d4720e53d61add1U, 0x3d1f4d843db9da70U,
  0x3dfc3abcbdac93faU, 0x3d39da70be016efbU, 0xbd1f4d84bdb33735U, 0x3d4720e53dc720e5U,
  0xbd04c099bb54675bU, 0xbd84c099bdb9da70U, 0x3d1f4d84bc9f4d84U, 0xbd7c3abcbc9f4d84U,
  0x3d1f4d84be1bfbe7U, 0xbc84c0993ceef446U, 0xbe4dc420bea29f22U, 0xbd1f4d843d84c099U,
  0xbd1f4d84be5115beU, 0xbb54675bbd12070fU, 0xbe0b63d4be229f22U, 0x3d2c93fabe1558acU,
  0xbdc07daabd7c3abcU, 0x3d54675bbe3688d2U, 0xbed2be8cbe97017bU, 0xbcb9da703d84c099U,
  0x3d39da70bdac93faU, 0x3db9da703c9f4d84U, 0x3deef4463da5f0bfU, 0xbe016efbbe8317caU,
  0x3d54675b3e1558acU, 0x3d6ef446be93afddU, 0xbd92070f3bd4675bU, 0x3ceef4463d39da70U,
  0xbea29f223e1558acU, 0xbd84c099bbd4675bU, 0x3e407daa3dac93faU, 0xbe5b0a96bc54675bU,
  0x3dd4675b3e4dc420U, 0x3d2c93fa3c84c099U, 0x3de1add13d54675bU, 0xbe4720e500000000U,
  0xbe2c93fa3e016efbU, 0xbe04c099bd9f4d84U, 0x3c54675bbd4720e5U, 0xbd92070f3e1558acU,
  0x3d8b63d43d9f4d84U, 0xbddb0a963d9f4d84U, 0xbd1f4d843c9f4d84U, 0x3d39da70bdc720e5U,
  0x3e3337353d8b63d4U, 0xbdb9da703de1add1U, 0x3dd4675bbe04c099U, 0x3dac93fa3e29425dU,
  0xbbab2c1dbdd5f724U, 0xbe25d2bc3e15c699U, 0x3da0795b3d4091a1U, 0x3d2b2c1d3d15c699U,
  0xbc806116bd806116U, 0xbd8b13d8U, 0xbc806116be60a9e6U, 0xbc8061163d2b2c1dU,
  0xbd4091a1be6b5ca8U, 0x3d0061163e106d38U, 0xbbab2c1dU, 0x3df60f6a3dc091a1U,
  0x3e1b1ffabe006116U, 0x3da0795bbd6b5ca8U, 0xbcd5f724be15c699U, 0x3c2b2c1dbdd5f724U,
  0x3e0b13d8bcab2c1dU, 0x3de0a9e6bd006116U, 0xbd4091a13d006116U, 0xbcd5f7243de0a9e6U,
  0xbcd5f7243d55f724U, 0x3e05ba77be05ba77U, 0xbd4091a13cab2c1dU, 0x3d806116bdeb5ca8U,
  0x3dab2c1d3d6b5ca8U, 0x3d0061163e0b13d8U, 0xbc806116be20795bU, 0xbbab2c1d3dab2c1dU,
  0x3e15c6993d95c699U, 0xbd6b5ca83d8b13d8U, 0x3c2b2c1d3e15c699U, 0x3e0b13d8be05ba77U,
  0x3d0061163d4091a1U, 0x3bab2c1d3c2b2c1dU, 0xbe0b13d83cab2c1dU, 0x3d4091a13d006116U,
  0xbd55f724bd006116U, 0xbc2b2c1d3db5dedfU, 0x3d55f7243e006116U, 0x3dd5f724be106d38U,
  0xbde0a9e63d8b13d8U, 0x3d4091a1bd8b13d8U, 0xbe45eb023cd5f724U, 0xbc2b2c1dbd806116U,
  0xbdeb5ca8bd15c699U, 0xbd55f724bdcb4462U, 0x3e45eb023d8b13d8U, 0x3d6b5ca8bd95c699U,
  0xbdcb44623bab2c1dU, 0x3e05ba77bdeb5ca8U, 0xbe0061163d15c699U, 0xbdeb5ca83d55f724U,
  0xbe98734a3d806116U, 0x3da0795b3d006116U, 0x3c2b2c1dbd55f724U, 0xbd55f7243d806116U,
  0xbe660347bd55f724U, 0x3deb5ca8bdcb4462U, 0xbe2b2c1dbdab2c1dU, 0xbe8b13d8bbab2c1dU,
  0xbed8a3d5bd2b2c1dU, 0x3cab2c1dbd55f724U, 0xbd2b2c1dbcd5f724U, 0xbe15c699be45eb02U,
  0xbe20795b3c806116U, 0xbdd5f724bd4091a1U, 0x3d4091a13bab2c1dU, 0xbe9b1ffabe106d38U,
  0xbf29d5c53e006116U, 0x3d2b2c1d3d95c699U, 0xbd15c699bd806116U, 0xbd8b13d8bdeb5ca8U,
  0xbc10b654bdfd3f12U, 0xbd04a722be712fe0U, 0xbe983fd3be99c1b9U, 0xbe31e01c3e13ba20U,
  0xbd90b654bdd9117dU, 0x3e1cc585bd84a722U, 0xbe22cd1ebdc6fab3U, 0xbd4d024cbebf7134U,
  0xbe712fe0bdc0f31aU, 0xbd1cc585be25d0eaU, 0xbd40f31abe1cc585U, 0xbe90b6543dd9117dU,
  0xbea14b38be10b654U, 0x3db4e3e8bdc6fab3U, 0xbcd9117dbd712fe0U, 0xbd10b654bd04a722U,
  0xbe1cc585be10b654U, 0x3c10b654be9e476bU, 0xbda8d4b7be621ce2U, 0xbd59117dbdaedc50U,
  0xbe04a722bdd9117dU, 0xbdeb2848bb40f31aU, 0xbdc0f31abd90b654U, 0xbe1fc952bc10b654U,
  0xbeabd883bd1cc585U, 0xbda8d4b7bd4d024cU, 0xbd6520afbe34e3e8U, 0x3d90b654be31e01cU,
  0xbd59117dbdeb2848U, 0xbd10b654bd6520afU, 0x3dc6fab33ca8d4b7U, 0xbe712fe0be37e7b5U,
  0xbd6520afbda8d4b7U, 0x3d8aaebbbd90b654U, 0xbde520afbdb4e3e8U, 0xbe3aeb81bdeb2848U,
  0xbd10b654bd7d3f12U, 0xbd04a722bbc0f31aU, 0x3ddf19163d4d024cU, 0x3ca8d4b7bd9cc585U,
  0x3cf12fe0bc10b654U, 0x3d7d3f123d9cc585U, 0x3d04a7223daedc50U, 0x3d59117dbd28d4b7U,
  0x3deb2848bd40f31aU, 0x3ddf19163d04a722U, 0xbbc0f31abd4d024cU, 0x3cd9117dbd59117dU,
  0x3d34e3e83dc0f31aU, 0x3c90b6543d04a722U, 0xbdaedc503d90b654U, 0x3daedc503d59117dU,
  0x3d7d3f123e07aaeeU, 0x3daedc50bd84a722U, 0x3d10b654bc712fe0U, 0x3c10b654bc90b654U,
  0x3e773779bbc0f31aU, 0x3e25d0eabd7d3f12U, 0x3c90b654bd04a722U, 0x3c40f31a3daedc50U,
  0x3e22cd1e3db4e3e8U, 0x3e04a7223e25d0eaU, 0xbdeb2848bd712fe0U, 0xbb40f31abd28d4b7U,
  0xbbc0f31a3db4e3e8U, 0x3e40f31a3cf12fe0U, 0x3e892cd43e983fd3U, 0x3d90b654bd4d024cU,
  0x3e19c1b93e16bdecU, 0x3e04a7223ca8d4b7U, 0x3e10b6543dd309e4U, 0xbda8d4b73da8d4b7U,
  0xbdbfa9d6be43932eU, 0xbd14a30e3e0cd05eU, 0xbd5b0b3dbdc77c86U, 0xbe1c75be3d2c1b1eU,
  0xbc1c75bebe39cbd2U, 0xbe1a8112be12ae62U, 0xbbbbc07ebe5ef495U, 0xbd7a55fd3d7a55fdU,
  0xbdb3edcebe1c75beU, 0xbe3fa9d63e0adbb2U, 0xbdb00476be10b9b6U, 0xbd1c75be3e24486eU,
  0x3d811456be2c1b1eU, 0xbe2253c2bdf66ca5U, 0xbe205f16bdc3932eU, 0x3e0adbb23d72834dU,
  0x3df66ca5bcfa55fdU, 0xbdeab09d3d24486eU, 0x3dac1b1ebd53388dU, 0xbddef495bd72834dU,
  0x3d3bc07ebe011456U, 0xbd2c1b1ebe12ae62U, 0xbd2c1b1ebdcf4f36U, 0xbd1c75be3d811456U,
  0x3e2a26723c9c75beU, 0xbe31f9223dee99f5U, 0x3de6c745bd4b65deU, 0x3d811456bd53388dU,
  0xbb7a55fdbe06f25aU, 0xbe3bc07e3d72834dU, 0x3dcf4f36bdcf4f36U, 0xbd43932ebcfa55fdU,
  0x3d88e706bafa55fdU, 0x3dbfa9d63e011456U, 0x3d43932ebd2c1b1eU, 0x3d4b65de3da831c6U,
  0xbdd721e5bdc77c86U, 0xbdcf4f363de6c745U, 0xbda831c6bc5b0b3dU, 0x3db3edce3d8cd05eU,
  0x3d90b9b6bd43932eU, 0x3ddb0b3d3e43932eU, 0x3ccb65de3c5b0b3dU, 0x3e2253c2bd1c75beU,
  0xbd1c75bebdbbc07eU, 0x3b7a55fd3c3bc07eU, 0xbdfa55fd3c9c75beU, 0x3e37d7263cac1b1eU,
  0xbc7a55fdbc7a55fdU, 0xbd24486e3d14a30eU, 0x3d811456be5b0b3dU, 0xbd6ab09dbdac1b1eU,
  0xbb7a55fd3c1c75beU, 0x3e1e6a6abe786151U, 0x3c8cd05e3d04fdaeU, 0x3d8114563d988c66U,
  0xbdee99f5bd2c1b1eU, 0x3c1c75bebd2c1b1eU, 0x3d90b9b6bdc77c86U, 0xbd8114563dc77c86U,
  0xbde2ddedbd62ddedU, 0x3bfa55fdbd33edceU, 0xbddb0b3d3dc3932eU, 0x3d04fdaebdf66ca5U,
  0xbe2831c63dfa55fdU, 0x3d33edcebc9c75beU, 0x3c5b0b3dbe2831c6U, 0xbde2dded3d6ab09dU,
  0x3d9c75bebda05f16U, 0x3ddef495bd84fdaeU, 0xbbbbc07ebd1c75beU, 0x3d84fdaebe5ef495U,
  0xbe6a927cbc016b4dU, 0xbca1c62000000000U, 0xbd016b4d3e0576a7U, 0xbe898202bdfabfe5U,
  0xbe8576a73d816b4dU, 0xbd21c6203cc220f4U, 0x3d4220f43dea927cU, 0xbdea927c3d1198b7U,
  0x3d21c620bd016b4dU, 0xbdc220f43db1f38aU, 0x3dd24e5d3d816b4dU, 0xbe8576a7bde27bc7U,
  0xbd627bc7bce27bc7U, 0xbc816b4d3ce27bc7U, 0xbd99af6bbd21c620U, 0x3b816b4dbd9198b7U,
  0xbb816b4d3e15a411U, 0xbe21c620bd1198b7U, 0x3e4220f43e4a37a8U, 0xbd816b4d3d21c620U,
  0xbb816b4d3c816b4dU, 0xbd72a930bd627bc7U, 0x3d9198b73da9dcd5U, 0x3d816b4d3d72a930U,
  0x3e35fee4bd1198b7U, 0xbe4e43033df2a930U, 0x3e1dbac63e016b4dU, 0x3d898202bdca37a8U,
  0xbd31f38a3dfabfe5U, 0xbe19af6bbdea927cU, 0xbc016b4d3dca37a8U, 0x3d8982023e524e5dU,
  0x3dc220f4be6a927cU, 0xbb816b4d3e31f38aU, 0xbc4220f4bcc220f4U, 0xbc4220f43d72a930U,
  0x3ca1c620bda9dcd5U, 0xbdf2a930bdb1f38aU, 0xbe4a37a8bc816b4dU, 0x3dba0a3f3d1198b7U,
  0xbce27bc7be15a411U, 0xbd31f38a3dba0a3fU, 0xbdba0a3fbea1c620U, 0x3e2de82fbcc220f4U,
  0x3dd24e5dbdc220f4U, 0x3cc220f43c4220f4U, 0x3ca1c6203e3a0a3fU, 0x3d016b4dbe0d8d5cU,
  0x3da1c620bda1c620U, 0x3e19af6bbd1198b7U, 0xbf006876bee48174U, 0xbd21c620bd016b4dU,
  0x3e0d8d5cbda9dcd5U, 0x3e19af6bbce27bc7U, 0x3cc220f43d9198b7U, 0x3dc220f4beade82fU,
  0x3e0576a73d524e5dU, 0x3d31f38abe3e1599U, 0xbe4220f4bd524e5dU, 0xbe4a37a83dc220f4U,
  0xbe29dcd53d99af6bU, 0x3d016b4dbd4220f4U, 0xbd31f38a3d72a930U, 0xbdb1f38a3c816b4dU,
  0xbe1198b73e31f38aU, 0x3d016b4dbe25d17bU, 0x3d016b4dbce27bc7U, 0xbd816b4dbd898202U,
  0x3e016b4d3e19af6bU, 0x3c4220f43e1dbac6U, 0x3da9dcd5bd4220f4U, 0xbe25d17b3dd24e5dU,
  0xbd41745c3e13c71cU, 0x3d4c33b6be9a7eb4U, 0xbc56f311be1676f2U, 0xbe4983e0bde71218U,
  0xbe13c71c3e00f83dU, 0x3d41745cU, 0xbdabf5a73e111745U, 0xbddc52bebd6c71c6U,
  0xbcec71c63d2bf5a7U, 0x3d21364dbe41745cU, 0x3d9117453d00f83dU, 0xbdf73120bd2bf5a7U,
  0xbe6462423cabf5a7U, 0xbcd6f311bde71218U, 0x3cec71c63e34052bU, 0xbe61b26b3c9676f2U,
  0x3d80f83d3e2ea57eU, 0xbc2bf5a7bdb6b501U, 0x3dd6f3113d9676f2U, 0xbe646242bdfc90cdU,
  0xbeaa9dbc3d56f311U, 0xbe03a814bd36b501U, 0x3d56f3113df1d173U, 0xbe1676f23d2bf5a7U,
  0x3e0e676e3e03a814U, 0x3d21364d3d00f83dU, 0x3c2bf5a7bc56f311U, 0xbd773120bd21364dU,
  0xbc9676f23df1d173U, 0xbe3155543d773120U, 0x3db6b501bd9bd69fU, 0x3e00f83dbd41745cU,
  0x3d61b26bbc00f83dU, 0xbdcc33b63babf5a7U, 0xbd7731203d00f83dU, 0xbd56f3113d0bb798U,
  0x3ddc52bebd8bb798U, 0xbdd6f311bd56f311U, 0xbd8bb798be442432U, 0x3d41745c3cd6f311U,
  0x3d56f311be3c14afU, 0xbd1676f23df73120U, 0xbb2bf5a7bc56f311U, 0xbdb15554bc00f83dU,
  0x3c00f83dbd911745U, 0x3d56f311bd41745cU, 0xbdc1745c3c00f83dU, 0xbcec71c6be0bb798U,
  0x3e34052bbd21364dU, 0xbd80f83dbdabf5a7U, 0x3c2bf5a7be9fde61U, 0x3b2bf5a7bd8bb798U,
  0xbcec71c6be2945d0U, 0xbbabf5a7bcc1745cU, 0xbe0657ea3d41745cU, 0xbcd6f311be7f40a4U,
  0xbd21364dbd773120U, 0xbde712183c2bf5a7U, 0xbd6c71c6be2ea57eU, 0x3dabf5a73da695faU,
  0xbdc6d409bd61b26bU, 0xbc56f311bd0bb798U, 0x3d9676f23d773120U, 0x3d2bf5a7bdec71c6U,
  0x3d9117453c2bf5a7U, 0x3c00f83d3e315554U, 0x3e7f40a43e03a814U, 0x3dc6d4093e34052bU,
  0x3d1676f23e0bb798U, 0xbd2bf5a73df73120U, 0x3e36b5013d4c33b6U, 0x3dbc14afbb2bf5a7U,
  0xbce0502cbc60502cU, 0xbd1a371ebe0fb35cU, 0xbe0fb35c3dcb48a8U, 0xbdcb48a83d444626U,
  0xbe0fb35c3e08b0dbU, 0x3dbd43a53daf3ea2U, 0x3df557b03e01ae59U, 0x3c283c21bdc44626U,
  0xbd852f9abd852f9aU, 0xbda139a0bd364124U, 0x3cfc5a323c60502cU, 0xbbe0502cbd6e552fU,
  0x3db641243e01ae59U, 0x3b60502c3dfc5a32U, 0x3dbd43a53d852f9aU, 0xbe283c21bd283c21U,
  0x3d93349d3e1db85fU, 0xbda83c213be0502cU, 0x3cc446263df557b0U, 0xbc8c321cbe13349dU,
  0x3e32bfe3bca83c21U, 0xbb60502cbd364124U, 0x3d0c321cbc60502cU, 0xbe2139a03c60502cU,
  0x3d9a371ebc8c321cU, 0xbd524b29be052f9aU, 0xbdd94dabbd283c21U, 0x3d6e552f3d7c5a32U,
  0xbd3641243d1a371eU, 0x3be0502c3db64124U, 0xbd60502cbd364124U, 0xbe01ae593de0502cU,
  0xbda139a03ce0502cU, 0xbe16b5deU, 0xbdb64124be55cc6aU, 0x3df557b0bd444626U,
  0x3e052f9abe01ae59U, 0xbde752adbd364124U, 0xbcc446263dbd43a5U, 0xbe16b5debdfc5a32U,
  0xbd524b293b60502cU, 0xbcc44626bdc44626U, 0xbd524b29bd0c321cU, 0xbdd94dabbd283c21U,
  0x3c283c213daf3ea2U, 0x3dd24b29bd60502cU, 0x3dd94dab3da83c21U, 0xbd93349dbd9a371eU,
  0xbe13349dbc60502cU, 0x3dbd43a5bdee552fU, 0xbd444626be5cceebU, 0xbcfc5a323c8c321cU,
  0xbca83c21bda83c21U, 0x3d60502c3de0502cU, 0xbe1db85f3d444626U, 0xbd283c21U,
  0xbe2f3ea23daf3ea2U, 0xbd444626bdfc5a32U, 0xbe1a371e00000000U, 0x3c283c21be16b5deU,
  0xbe852f9abd93349dU, 0x3e0fb35c3d0c321cU, 0xbd283c21bd852f9aU, 0xbc60502cbd364124U,
  0x3d9a371e3e2139a0U, 0x3d7c5a32be3d43a5U, 0x3dd94dabbd7c5a32U, 0xbe13349dbd444626U,
  0xbede8f8c3cfc5a32U, 0x3d4446263df557b0U, 0xbc60502c3e08b0dbU, 0xbde0502c3d60502cU,
  0xbda278583c73b484U, 0x3e10b32ebe5f6579U, 0xbe40eee8be36c763U, 0x3c4b166ebca27858U,
  0x3ccb166ebda78c1bU, 0x3d9850d2bd5f6579U, 0xbb2278583deea0c1U, 0xbe31b3a0bea13367U,
  0xbdc602ab3d0e294dU, 0xbb227858be1850d2U, 0xbd89158abd0401c8U, 0xbd1850d2bc4b166eU,
  0xbe553df43dc602abU, 0x3cb6c7633d73b484U, 0x3dcb166ebcdf6579U, 0xbe95c6f13dda51b6U,
  0xbdc0eee83e068ba9U, 0xbddf6579U, 0x3d2c9fdebc4b166eU, 0xbc73b484be6c16e0U,
  0x3d2c9fde3dd53df4U, 0xbcf3b484bdac9fdeU, 0xbc2278583ddf6579U, 0xbe2502393c227858U,
  0xbba278583d2c9fdeU, 0x3cdf65793d1850d2U, 0x3ca278583d1850d2U, 0x3dda51b6be6c16e0U,
  0x3d8401c83c227858U, 0xbd2c9fde3dc602abU, 0xbb227858bdc0eee8U, 0x3d2278583d7ddc0aU,
  0xbe2a15fcbd8e294dU, 0xbdc0eee8bda78c1bU, 0x3e0177e63db1b3a0U, 0x3e0e294dbd933d10U,
  0xbdb6c763bdb1b3a0U, 0xbe1d6495bd227858U, 0xbd40eee83d227858U, 0x3dac9fde3de4793cU,
  0xbdd02a31be10b32eU, 0xbdfddc0abc4b166eU, 0x3d73b4843d1850d2U, 0xbd553df43d0e294dU,
  0xbdeea0c13d2c9fdeU, 0x3df3b4843dac9fdeU, 0xbd0e294d3d8401c8U, 0xbd89158a3dd02a31U,
  0xbcb6c763bdb6c763U, 0xbd553df43c73b484U, 0xbe0401c8be1fee77U, 0xbde4793cbc8e294dU,
  0x3d73b4843d698cfeU, 0xbd227858bdb6c763U, 0xbdbbdb263d227858U, 0x3d2c9fdebda78c1bU,
  0xbe4b166e3d2c9fdeU, 0xbd2c9fde3e1fee77U, 0xbdf3b484be4b166eU, 0x3d5f6579bd36c763U,
  0x3d1850d23dbbdb26U, 0x3e0177e6bb227858U, 0x3d8e294d3cf3b484U, 0x3d5f6579bda27858U,
  0xbe0177e6bda27858U, 0x3dfddc0abcf3b484U, 0xbe1d6495bd40eee8U, 0xbc4b166e3d0401c8U,
  0x3cf3b4843c4b166eU, 0x3dc0eee83ddf6579U, 0x3d8401c83d9850d2U, 0x3ba27858be2c9fdeU,
  0x3c1d5d393d4b4314U, 0x3ddeeebbbcc4b487U, 0xbc90401fbcaa7a53U, 0x3bd1d1a13e1bb995U,
  0xbc0323053d23ebc6U, 0x3de8c48f3ddeeebbU, 0xbd58602ebc51d1a1U, 0x3caa7a53bdd8602eU,
  0x3c37976d3da7330cU, 0x3d44b487be502dfeU, 0xbdec0bd5bd23ebc6U, 0xbe10401fbd23ebc6U,
  0xbd3108e03d657d48U, 0xbdbadeb33def531cU, 0x3c1d5d393db108e0U, 0xbd23ebc6bd8cf8d8U,
  0xbe18724f3da3ebc6U, 0x3d5eeebbbdc4b487U, 0xbd0323053d09b192U, 0xbcb7976dbc832305U,
  0x3e3fc99d3de57d48U, 0xbd51d1a13d4b4314U, 0x3d96ceacbb9d5d39U, 0xbd4b4314bd1d5d39U,
  0xbd89b192bc37976dU, 0xbda7330cbd7928efU, 0x3d16ceac3d16ceacU, 0x3e1bb995be2c1df6U,
  0x3de8c48f3d729a62U, 0x3c9d5d393de57d48U, 0xbda7330cbd37976dU, 0xbe20a47f3cd1d1a1U,
  0xbd90401fbcdeeebbU, 0x3d44b487be017f61U, 0xbd729a62bd7928efU, 0x3db45026be10401fU,
  0xbd96ceacbdb108e0U, 0x3cdeeebb3e0cf8d8U, 0x3dce8a5a3d7928efU, 0xbd832305bd3e25faU,
  0x3e0b55353d89b192U, 0x3cdeeebb3dadc199U, 0xbd9a15f2bcc4b487U, 0xbcf928efbd729a62U,
  0xbdcb4314bdffb77cU, 0xbd938765bcaa7a53U, 0xbd7928ef3d58602eU, 0x3c9d5d393dc7fbcdU,
  0x3d6c0bd5bdb45026U, 0x3d16ceacbda3ebc6U, 0xbe1f00dcbdf928efU, 0xbc0323053ad1d1a1U,
  0x3c1d5d39bddeeebbU, 0x3cdeeebb3e0e9c7bU, 0xbd657d483d90401fU, 0x3d44b487be032305U,
  0xbd58602e3daa7a53U, 0x3d9a15f2bd1d5d39U, 0xbda7330cbdaa7a53U, 0xbc9d5d39bddba775U,
  0x3d657d48bcd1d1a1U, 0xbd58602e3d2a7a53U, 0x3e080deebd1d5d39U, 0x3d37976dbd2a7a53U,
  0xbc1d5d393e0b5535U, 0xbc6c0bd5bd09b192U, 0x3d2a7a533d58602eU, 0x3cdeeebb3ddeeebbU,
  0x3d5eeebb3e0b5535U, 0x3db45026bd96ceacU, 0x3daa7a533dd8602eU, 0x3c90401f3d10401fU,
  0x3d42b4d2bc33ba9bU, 0xbd6fa3793dd1af0aU, 0x3e92079e3e06cbf4U, 0x3dd1af0abe42b4d2U,
  0x3e2101d5bdc2b4d2U, 0xbdfe9db1bdd1af0aU, 0xbdfe9db1U, 0x3d9d43473e68265dU,
  0xbcd1af0abe15c62cU, 0xbdac3d7f3e8a8a82U, 0x3df720953cb3ba9bU, 0x3cb3ba9bbe0e4910U,
  0x3e0a8a82be68265dU, 0xbe15c62cbe2101d5U, 0xbe7adf23bdf72095U, 0x3e6be4eb3e2c3d7fU,
  0xbe06cbf4be9b6400U, 0xbdb3ba9b3dfe9db1U, 0xbd42b4d2bdefa379U, 0x3e3ef644bd15c62cU,
  0x3e60a941bde0a941U, 0x3e030d66bdf72095U, 0xbe902857bc33ba9bU, 0x3e1984babe2c3d7fU,
  0xbe377929be12079eU, 0x3d24c0633e24c063U, 0xbe902857bedec9faU, 0x3d9d4347bc33ba9bU,
  0x3e42b4d2bd9d4347U, 0xbcefa3793da4c063U, 0xbe467360bc95c62cU, 0x3d8e4910beedc432U,
  0xbd60a941bd7e9db1U, 0x3dd1af0abdbb37b7U, 0xbebd16fdbe42b4d2U, 0xbcb3ba9b3c95c62cU,
  0xbd24c0633d51af0aU, 0x3e4673603dbb37b7U, 0xbd8e4910bc33ba9bU, 0x3cb3ba9bbec2b4d2U,
  0xbd8e49103d95c62cU, 0x3e12079ebb6fa379U, 0xbe3ef6443d7e9db1U, 0xbd95c62cbbefa379U,
  0xbe88ab3b3db3ba9bU, 0x3e12079e3b6fa379U, 0x3dc2b4d23d51af0aU, 0xbd95c62cbe377929U,
  0xbd7e9db13defa379U, 0x3e1984babcefa379U, 0x3cd1af0abd51af0aU, 0xbdfe9db1bd42b4d2U,
  0xbe68265d3d51af0aU, 0x3defa379bdb3ba9bU, 0x3de0a9413dd92c26U, 0xbdc2b4d2bd42b4d2U,
  0xbcd1af0a3e1d4347U, 0x3b6fa379be2c3d7fU, 0x3c6fa379bd60a941U, 0x3d06cbf4be1984baU,
  0x3c6fa3793dac3d7fU, 0x3d42b4d23de8265dU, 0x3b6fa3793c6fa379U, 0xbcd1af0a3e06cbf4U,
  0x3dd92c263d06cbf4U, 0x3e15c62cbda4c063U, 0xbdf720953d95c62cU, 0x3e0e49103da4c063U,
  0x3e06cbf43d95c62cU, 0xbc95c62c3e15c62cU, 0x3db3ba9b3c33ba9bU, 0xbd95c62c3cefa379U,
  0x3d50f7693e26392bU, 0xbd04fa893ded763eU, 0x3e3df8313da1795dU, 0xbe9f1976bd97f9c1U,
  0xbe89ba573de3f6a2U, 0xbe7bb5a8bdb47895U, 0xbd17f9c13da1795dU, 0x3cbdf8313e2fb8c7U,
  0xbc63f6a23d84fa89U, 0xbded763e3e2af8f9U, 0x3e09ba573d76f5daU, 0xbd63f6a2bdbdf831U,
  0xbcbdf831bd76f5daU, 0xbe42b7ff3c17f9c1U, 0xbd84fa893da1795dU, 0x3e3938633d8e7a25U,
  0x3cbdf831be2af8f9U, 0xbe68b6703e68b670U, 0x3e5a77053d84fa89U, 0x3df6f5da3d17f9c1U,
  0x3daaf8f9be6d763eU, 0xbdaaf8f9bdd0f769U, 0xbe829aa2be003abbU, 0x3c63f6a23d8e7a25U,
  0xbe0e7a25be76f5daU, 0xbc63f6a23e04fa89U, 0x3e2fb8c7be21795dU, 0x3ded763ebd50f769U,
  0x3dd0f769be42b7ffU, 0x3e21795d3d50f769U, 0xbd84fa893d04fa89U, 0x3dc777cdbded763eU,
  0xbdb47895bd3df831U, 0x3e68b67000000000U, 0xbe1cb98fbe0e7a25U, 0x3ce3f6a23e4c379bU,
  0x3e50f769be003abbU, 0x3e72360c3da1795dU, 0xbd17f9c13e26392bU, 0x3e17f9c1bdd0f769U,
  0x3ded763ebb97f9c1U, 0x0U, 0xbe9599da3d17f9c1U, 0xbdb478953da1795dU,
  0xbd2af8f93e63f6a2U, 0x3cbdf8313d84fa89U, 0xbc63f6a2bcbdf831U, 0x3e09ba573c63f6a2U,
  0x3d84fa893d8e7a25U, 0xbcbdf831be50f769U, 0xbeafb8c7bdc777cdU, 0xbe09ba573e003abbU,
  0xbe4c379b3da1795dU, 0x3dd0f7693d97f9c1U, 0x3e21795d3ce3f6a2U, 0xbda1795dbd8e7a25U,
  0xbd04fa89bce3f6a2U, 0x3d17f9c1bdc777cdU, 0xbe9f1976be8e7a25U, 0xbead58e0bd8e7a25U,
  0xbee8b6703e21795dU, 0x3daaf8f9bc17f9c1U, 0xbe003abbbd04fa89U, 0xbe5a7705bdbdf831U,
  0xbead58e03ded763eU, 0x3e1cb98fbe9f1976U, 0xbe8e7a25be09ba57U, 0xbec9d7b43c63f6a2U,
  0xbf16c9cdbd63f6a2U, 0x3dda7705bcbdf831U, 0x3d97f9c13d97f9c1U, 0xbe72360cbe55b737U,
  0xbe1b68f0bdef1798U, 0x3d4f3695bda75d51U, 0xbd0f748fbd9f6510U, 0xbee52147be9d6700U,
  0xbead5782bdaf5592U, 0xbc9f65103c7f081aU, 0xbe7313b9bd2f5592U, 0xbdaf5592be473e54U,
  0xbeb94be3bc7f081aU, 0xbe1370afbd8f748fU, 0xbd976ccfbcff081aU, 0xbe6b1b78bd6f1798U,
  0xbe176ccf3c7f081aU, 0xbe3f4614be3b49f3U, 0xbd5f2717bcdf2717U, 0xbe03802dbdbf4614U,
  0x3d877c4e3e1b68f0U, 0xbe03802d3d9f6510U, 0x3d7f081abc7f081aU, 0xbefd0a0a3d7f081aU,
  0xbe8f748f3db74dd3U, 0xbe3f4614be176ccfU, 0x3e83802dbd2f5592U, 0x3d9f65103c3f4614U,
  0x3e976ccf3e2b5971U, 0xbda75d51bcff081aU, 0x3dcf36953d976ccfU, 0xbd9f6510bb7f081aU,
  0x3e3351b2bd976ccfU, 0xbcbf4614bbff081aU, 0x3b7f081abe03802dU, 0x3d976ccf3e03802dU,
  0x3dbf4614bdef1798U, 0xbeaf55923dd72ed6U, 0xbd7f081abdd72ed6U, 0x3e473e543cff081aU,
  0x3e077c4ebd4f3695U, 0xbe81821d00000000U, 0x3d1f6510bda75d51U, 0x3d6f1798bde71f58U,
  0x3d2f55923dff081aU, 0xbe0f748fbd7f081aU, 0xbd3f4614bcff081aU, 0x3c3f46143e473e54U,
  0xbc7f081abd4f3695U, 0xbda75d513d2f5592U, 0x3e374dd33c7f081aU, 0x3cdf2717bdbf4614U,
  0x3e6b1b78bde71f58U, 0x3def1798bdb74dd3U, 0x3dd72ed6U, 0xbddf2717bd3f4614U,
  0xbcdf2717be632337U, 0x3e3b49f33e0b786eU, 0x3d5f2717bde71f58U, 0x3c3f46143cdf2717U,
  0x3d2f5592be03802dU, 0xbe275d513e077c4eU, 0xbbff081a00000000U, 0x3dd72ed6be572ed6U,
  0x3e1b68f0bdf70fd9U, 0x3daf55923d6f1798U, 0x3dbf4614be0b786eU, 0x3daf5592bd1f6510U,
  0xbd8f748f3d0f748fU, 0x3cbf46143d877c4eU, 0xbd877c4ebdff081aU, 0x3d2f559200000000U,
  0x3e2f5592be1370afU, 0xbc7f081abbff081aU, 0xbc9f6510bc7f081aU, 0xbd976ccf3cdf2717U,
  0x3c6a31a4bd925f06U, 0x3d2fa53bbe07ea86U, 0xbe84c793be4ad422U, 0xbd968da0bd59773dU,
  0x3d2fa53bbd8a01d3U, 0x3dff1aa53dc05fa2U, 0x3c48bcd6bdab76a1U, 0x3d59773dbe81a49fU,
  0xbdc48e3c3cb8026eU, 0xbb85d339be01a49fU, 0xbe2b76a13d8a01d3U, 0xbcea31a43d405fa2U,
  0xbe63ebbd3d168da0U, 0x3b05d339bd511a09U, 0xbd48bcd63c274807U, 0xbdab76a1be1abc3aU,
  0xbd2fa53bbbc8bcd6U, 0x3d2fa53bbe4ad422U, 0xbe210221bda3196dU, 0xbbc8bcd63cb8026eU,
  0xbe70778a3df28ed7U, 0xbde1d470bd48bcd6U, 0xbdab76a13de1d470U, 0xbe681a573dea31a4U,
  0x3b05d339bdfaec0bU, 0x3cd9773dbe2b76a1U, 0xbe2fa53bbd81a49fU, 0x3d168da0bdab76a1U,
  0x3e1047b9bca74807U, 0x3d8a01d33da74807U, 0xbcfaec0b3da3196dU, 0xbd38026ebe1eead4U,
  0xbd7aec0b3da3196dU, 0xbd8e306d3cb8026eU, 0xbddda5d6bdcceb6fU, 0x3dc05fa23d38026eU,
  0x3bc8bcd63d168da0U, 0xbd8a01d3bd8a01d3U, 0x3e125f063d968da0U, 0xbdb3d3d5bd7aec0bU,
  0x3e23196d3d511a09U, 0x3dee603ebd7aec0bU, 0xbe0a01d33d81a49fU, 0xbd0e306dbdea31a4U,
  0x3d405fa2bdfaec0bU, 0x3dc8bcd6bd05d339U, 0xbda74807bdab76a1U, 0x3d405fa23d2fa53bU,
  0x3de6030abdd11a09U, 0x3dd548a3bd05d339U, 0x3df28ed7bbc8bcd6U, 0x3e295f54bdbc3108U,
  0x3db8026e3b05d339U, 0xbd2fa53bbcea31a4U, 0xbc2748073dbc3108U, 0x3c48bcd6bd274807U,
  0xbd511a093dc05fa2U, 0x3e125f06bcea31a4U, 0xbd925f063c48bcd6U, 0xbd7aec0bbdbc3108U,
  0x3d1eead400000000U, 0x3e0c19203df6bd71U, 0x3d968da03d274807U, 0x3dd11a09bb85d339U,
  0xbe07ea86bc85d339U, 0x3e1047b93b05d339U, 0x3c05d3393db8026eU, 0xbd38026ebd59773dU,
  0x3d511a09bd168da0U, 0x3dff1aa53dff1aa5U, 0xbd274807bcd9773dU, 0xbd925f06bc05d339U,
  0xbddc2cecbd4828d7U, 0xbd911d9c3d821a8cU, 0xbe0e9d19be63ae75U, 0x3bf03102bd161ea1U,
  0x3e2020acbdff3412U, 0x3bf03102bdaf23bcU, 0xbc8c1c96bd662ef7U, 0xbd3424c2be753207U,
  0x3deb2ffd3d961ea1U, 0xbdd72be7bd662ef7U, 0x3d7a330dbcb424c2U, 0xbca020ac3e049b0eU,
  0xbcc828d73c2020acU, 0xbd911d9cbda521b1U, 0xbdb424c2bdfa330dU, 0xbc8c1c96be161ea1U,
  0x3e22a12f3d8c1c96U, 0x3d871b91bd2020acU, 0x3dff341200000000U, 0xbd911d9c3e049b0eU,
  0xbc4828d73d021a8cU, 0xbe021a8cbd9b1fa7U, 0xbd161ea1be2020acU, 0x3d0c1c963dc327d2U,
  0x3e049b0ebca020acU, 0xbdb925c73c2020acU, 0xbe2f23bcbde12df2U, 0x3cdc2cecbdbe26ccU,
  0x3e5c2cecbd662ef7U, 0xbc2020ac3deb2ffdU, 0xbe1da029bdff3412U, 0xbdc327d23da521b1U,
  0x3e2f23bcbe59ac6aU, 0xbe0c1c963bf03102U, 0xbcc828d7bdb424c2U, 0x3e94de60bc4828d7U,
  0x3e522ae2be1da029U, 0x3d522ae23e36a544U, 0x3e099c14bdd72be7U, 0x3c4828d7bdc327d2U,
  0x3d871b913ca020acU, 0x3deb2ffd3d161ea1U, 0x3d9b1fa7bcb424c2U, 0x3d5c2cec3cf03102U,
  0x3d5c2cecbca020acU, 0x3daa22b73d3424c2U, 0x3e8d5cd8bd871b91U, 0xbe2f23bc3d021a8cU,
  0x3e9ee06bbd0c1c96U, 0x3e161ea13c2020acU, 0x3d961ea13e1da029U, 0x3d4828d73ca020acU,
  0x3b2020ac3cf03102U, 0x3dc828d73df53207U, 0xbd871b913e071b91U, 0xbd522ae23d9b1fa7U,
  0x3daa22b73e0e9d19U, 0xbcb424c23d821a8cU, 0x3d821a8c3dcd29dcU, 0x3de62ef7bd662ef7U,
  0xbb2020acbd961ea1U, 0x3d2a22b7bd2a22b7U, 0x3c4828d73d662ef7U, 0x3dfa330d3daa22b7U,
  0xbdaa22b7bd161ea1U, 0x3d2020acbb2020acU, 0xbda020acbde62ef7U, 0x3dfa330d3d522ae2U,
  0x3c8c1c96bd821a8cU, 0xbcf03102bd4828d7U, 0x3c8c1c963d5c2cecU, 0x3d9b1fa7bcb424c2U,
  0x3d5d0a373e0e18daU, 0x3c3d76783decd417U, 0x3d3d76783cbd7678U, 0x3dadac993dfc9df6U,
  0x3da5c7a93dc55b68U, 0x3de4ef273da5c7a9U, 0x3dfc9df63e0a2663U, 0xbb7c9df63d1de2baU,
  0x3dfc9df63dc55b68U, 0x3de4ef27bcfc9df6U, 0xbc7c9df63d6cd417U, 0x3d6cd4173decd417U,
  0x3dc55b683d1de2baU, 0x3dc55b683cfc9df6U, 0xbd3d76783d95fdcaU, 0xbc9de2babd3d7678U,
  0xbda5c7a9bb7c9df6U, 0xbd4d4058bd9de2baU, 0xbd4d40583d8e18daU, 0x3df4b9063d95fdcaU,
  0x3d2dac993d8633ebU, 0xbd7c9df6bd7c9df6U, 0xbd95fdcabdc55b68U, 0x3e024173bdcd4058U,
  0xbd2dac99be15fdcaU, 0x3d95fdcabddd0a37U, 0xbe120b52bdd52548U, 0x3d1de2ba3dbd7678U,
  0xbd7c9df6bd9de2baU, 0x3db59189bdbd7678U, 0x3de4ef273e0e18daU, 0xbd2dac99be0e18daU,
  0x3e15fdca3d7c9df6U, 0x3decd4173d1de2baU, 0xbdd525483db59189U, 0xbe024173bc9de2baU,
  0xbdf4b906bd5d0a37U, 0xbd0e18da3c9de2baU, 0xbdd52548bc9de2baU, 0xbddd0a37bcfc9df6U,
  0xbd8e18da3cdd0a37U, 0x3c3d7678be455b68U, 0xbd8e18dabe455b68U, 0xbdbd76783dcd4058U,
  0xbeb19f1100000000U, 0x3dbd76783b7c9df6U, 0xbe0e18da3bfc9df6U, 0xbe0633ebbe29ba21U,
  0xbe5d0a37bda5c7a9U, 0x3d0e18dabdf4b906U, 0x3d1de2babc7c9df6U, 0xbe8e18da3d0e18daU,
  0xbefaa4babdbd7678U, 0x3db591893d5d0a37U, 0xbc3d76783d1de2baU, 0xbdadac99be15fdcaU,
  0x3e120b523df4b906U, 0xbdcd4058bc3d7678U, 0x3db59189bcbd7678U, 0xbea9ba21be0a2663U,
  0xbe552548bcdd0a37U, 0xbd8633eb3d7c9df6U, 0xbc3d7678bd2dac99U, 0x3d7c9df63dd52548U,
  0x3cfc9df63b7c9df6U, 0x3d5d0a37bdfc9df6U, 0xbd6cd41700000000U, 0x3e5d0a37bd2dac99U,
  0x3e25c7a93d8633ebU, 0x3dc55b683ddd0a37U, 0x3d8e18da3dcd4058U, 0xbda5c7a9bd5d0a37U,
  0xbd800fa7bd6113c1U, 0x3cba45503d49cb17U, 0xbdd56f6cbdc9cb17U, 0xbdd56f6cbaf85c6bU,
  0xbdc5e9a5bd8f956eU, 0xbddd324fbe64f533U, 0xbda2fca6be156798U, 0x3cc9cb173d1b39c3U,
  0x3dfc3dddbd975851U, 0xbe1186273d2abf8aU, 0xbd87d28bbd3a4550U, 0xbc3a45503d420834U,
  0x3bf85c6bbdd56f6cU, 0xbe0bb3fcbe385497U, 0x3d1b39c3bd6113c1U, 0xbdc9cb173d709988U,
  0x3d32826dbda2fca6U, 0xbe3663df3de4f533U, 0x3d22fca63dba4550U, 0x3d83f1193dd950deU,
  0x3d709988be0da4b5U, 0xbe118627be4dac89U, 0xbddd324fbe1b39c3U, 0xbc5950debe1d2a7cU,
  0xbd1b39c3bdf85c6bU, 0xbd49cb17bcd950deU, 0x3de8d6a4bdc20834U, 0x3bba45503d68d6a4U,
  0x3db663df3bf85c6bU, 0x3dbe26c23d1b39c3U, 0x3d1b39c3bce8d6a4U, 0xbc1b39c3bc5950deU,
  0xbd420834be2abf8aU, 0xbc9b39c300000000U, 0xbdc9cb17bdbe26c2U, 0x3bf85c6bbdd18dfaU,
  0xbd5950debdc9cb17U, 0xbc5950debd83f119U, 0xbdbe26c2bde4f533U, 0x3dfc3ddd3dbe26c2U,
  0xbdc208343caabf8aU, 0x3d22fca63d87d28bU, 0xbe118627be2abf8aU, 0x3af85c6bbaf85c6bU,
  0x3d9376e03dc9cb17U, 0x3ddd324f3d83f119U, 0x3caabf8abd2abf8aU, 0x3d03f119bdc9cb17U,
  0x3bba4550bd975851U, 0x3d0bb3fc3d785c6bU, 0xbe0da4b5bbba4550U, 0xbbf85c6b3daea0fbU,
  0x3e0bb3fcbc8bb3fcU, 0xbd2abf8a3dc5e9a5U, 0x3dcdac893cc9cb17U, 0xbdd18dfabe210bedU,
  0x3e22fca6bce8d6a4U, 0xbd9f1b353d518dfaU, 0x3e0f956e3cd950deU, 0x3d800fa73c9b39c3U,
  0x3d9b39c33de113c1U, 0xbd3a4550bcf85c6bU, 0x3e28ced13dd56f6cU, 0xbd1b39c33cd950deU,
  0x3e556f6c3e0f956eU, 0x3d32826d3dba4550U, 0x3d9b39c33e347326U, 0x3e03f1193e05e1d2U,
  0x3e766bb23d9f1b35U, 0x3e19490a3d975851U, 0xbcaabf8abdc9cb17U, 0x3dbe26c23e0da4b5U,
  0xbe0149153e2e411cU, 0x3e06e8163d4a5c21U, 0xbc86e816bbb3e01dU, 0x3cb3e01dbe4ffb22U,
  0xbbb3e01d3e397f1eU, 0xbdca5c21bd1d6419U, 0x3d9226183dbf1e1fU, 0xbdbf1e1f3db3e01dU,
  0xbda8a21b3bb3e01dU, 0x3c86e816bde0d824U, 0xbd775428be5b3923U, 0xbe4a5c213d33e01dU,
  0xbe397f1e3c86e816U, 0x3d775428bcb3e01dU, 0xbdbf1e1f3d4a5c21U, 0xbd922618bdbf1e1fU,
  0xbe28a21b3dbf1e1fU, 0x3de0d824be4ffb22U, 0xbd775428bda8a21bU, 0xbe97c5183d9d6419U,
  0xbea8a21b00000000U, 0x3d9d6419bc86e816U, 0xbd1d64193c33e01dU, 0xbd1d6419bd60d824U,
  0xbe06e816bdca5c21U, 0x3d06e816be23031aU, 0xbe5b3923bd33e01dU, 0xbeca5c213db3e01dU,
  0xbf32785dbdec1626U, 0xbe014915bc33e01dU, 0xbd86e8163d922618U, 0xbcb3e01dbe559a22U,
  0x3cb3e01d3c86e816U, 0xbdf75428bdd59a22U, 0x3dbf1e1fbc33e01dU, 0xbe9a94993e014915U,
  0xbecd2ba13dca5c21U, 0xbe3f1e1f3cb3e01dU, 0x3e0c8717bdca5c21U, 0x3d33e01d3d60d824U,
  0x3d06e8163e122618U, 0xbdca5c213da8a21bU, 0x3e44bd203e5b3923U, 0x3d9226183d1d6419U,
  0x3e71b5273d775428U, 0xbc33e01d3c86e816U, 0x3d06e816bd33e01dU, 0x3d9d641900000000U,
  0x3e0c8717be4ffb22U, 0xbe2e411cbd1d6419U, 0x3e44bd203e4a5c21U, 0x3e9226183bb3e01dU,
  0x3e8f5697be17c518U, 0xbd7754283d60d824U, 0xbc33e01d00000000U, 0x3e0c87173d60d824U,
  0x3d86e816bd4a5c21U, 0xbd7754283d9d6419U, 0x3e5b3923bd86e816U, 0x3e8c8717bda8a21bU,
  0x3d9d6419bd9d6419U, 0xbd7754283d4a5c21U, 0xbbb3e01d3e397f1eU, 0xbce0d8243df75428U,
  0xbbb3e01d3d775428U, 0x3d9226183e122618U, 0xbd06e816bc86e816U, 0x3bb3e01d3e2e411cU,
  0x3e014915bd33e01dU, 0x3dbf1e1f3e23031aU, 0xbde0d8243d922618U, 0xbd06e8163e014915U,
  0xbd34ac9f3d9e170bU, 0xbe8a542a3e786d5bU, 0x3dcb4233bc34ac9fU, 0x3dd68cfd3e7e12c0U,
  0x3de1d7c700000000U, 0xbf1162e83c34ac9fU, 0xbd8781773d786d5bU, 0x3ded2291bc878177U,
  0x3da961d5be2961d5U, 0xbe9871a63cb4ac9fU, 0x3dbff7693cb4ac9fU, 0x3e0781773eac3488U,
  0x3e1871a6be459cceU, 0xbe72c7f63dcb4233U, 0xbe078177bcb4ac9fU, 0x3e01dc123d9e170bU,
  0x3bb4ac9fbe61d7c7U, 0xbd878177bcb4ac9fU, 0xbd078177bec86f80U, 0x3db4ac9f3dd68cfdU,
  0x3df86d5bbeea4fdeU, 0xbe9871a63d878177U, 0xbf1b4459bde1d7c7U, 0x3d4b4233be8d26dcU,
  0x3e0d26dcbe078177U, 0xbd0781773d078177U, 0xbd786d5bbe34ac9fU, 0x3e0781773db4ac9fU,
  0xbd4b4233bbb4ac9fU, 0xbc878177bd078177U, 0xbf23bc70be2f073aU, 0x3e23bc70be959ef4U,
  0xbbb4ac9fbce1d7c7U, 0x3d1e170b3cb4ac9fU, 0x3d34ac9fbe459cceU, 0xbe786d5b3d92cc41U,
  0xbeaf073abdd68cfdU, 0x3dcb42333e12cc41U, 0xbed0e7983c34ac9fU, 0x3d878177be0d26dcU,
  0xbe50e798bdbff769U, 0x3d34ac9f3c34ac9fU, 0xbe34ac9fbe61d7c7U, 0xbe9e170bbcb4ac9fU,
  0xbd1e170b3d9e170bU, 0xbe34ac9f3db4ac9fU, 0xbda961d53cb4ac9fU, 0x3e72c7f6bc878177U,
  0xbef86d5bbd34ac9fU, 0xbe50e7983e677d2cU, 0xbe2961d5be786d5bU, 0xbe0d26dc3cb4ac9fU,
  0x3e1e170bbce1d7c7U, 0xbcb4ac9fbdbff769U, 0xbe81dc12bd878177U, 0x3db4ac9fbea68f23U,
  0xbeb1d9edbe3ff769U, 0xbdbff7693e2f073aU, 0xbe2f073abf078177U, 0x3bb4ac9f3cb4ac9fU,
  0x3e078177be1871a6U, 0xbce1d7c7bc34ac9fU, 0xbeb4ac9f3d878177U, 0x3e1e170bbf14359aU,
  0xbf0e9035bde1d7c7U, 0x3de1d7c7bd1e170bU, 0xbec2ca1bbf268f23U, 0x3cb4ac9fbd078177U,
  0x3e3ff769be01dc12U, 0x3ea0e9bebd34ac9fU, 0xbe23bc703d1e170bU, 0x3d61d7c7bf334346U,
  0x3ddeeaddbe677dbeU, 0xbe960a64bb36e818U, 0x3d092e12bd8376d1U, 0x3de4a21e3d7b7f21U,
  0x3dab7996be2b7996U, 0xbe1d2f75be149c94U, 0xbe6a595fbe3130d7U, 0x3e5eeaddbd59339cU,
  0xbca00b15be3130d7U, 0xbe6a595f3d4dc51bU, 0x3d8376d13bb6e818U, 0xbd092e123dcdc51bU,
  0x3c36e818bdf010a0U, 0xbddeeaddbe1d2f75U, 0xbe537c5cbdd9339cU, 0x3d36e8183bb6e818U,
  0xbcb6e818be3f7af9U, 0x3d59339c3d64a21eU, 0xbd64a21ebdb6e818U, 0x3e1d2f753d7b7f21U,
  0x3e25c256be7e5ac1U, 0xbd092e12bd892e12U, 0xbe4ae97b3c092e12U, 0x3dbc9f59be36e818U,
  0xbe1d2f753da5c256U, 0xbd4dc51b3dcdc51bU, 0xbd42569abe8376d1U, 0x3db6e818bc892e12U,
  0x3d36e8183d4dc51bU, 0x3cfb7f213d4dc51bU, 0xbdd9339cbc64a21eU, 0x3d949c94be9bc1a4U,
  0x3b36e8183dd37c5cU, 0xbc36e8183c64a21eU, 0xbe7b7f21bde4a21eU, 0x3e0c09b2bd64a21eU,
  0x3dc2569a3da5c256U, 0x3d149c94bc64a21eU, 0xbccdc51bbd2b7996U, 0x3d8376d1be50a0bbU,
  0x3d2b79963ce4a21eU, 0xbd2b7996bdb6e818U, 0xbe009b313c36e818U, 0xbcb6e818bd42569aU,
  0x3e22e6b53bb6e818U, 0x3d8ee553bd200b15U, 0x3db130d73e1d2f75U, 0x3db6e818bd42569aU,
  0xbd64a21e3de4a21eU, 0x3e39c3b8be25c256U, 0x3da5c256bc36e818U, 0xbd200b15bd59339cU,
  0x3e45323a3e177834U, 0x3dd37c5cbd149c94U, 0xbd892e123c892e12U, 0xbdd37c5cbc64a21eU,
  0xbd64a21e3da5c256U, 0x3e0c09b2bccdc51bU, 0xbd949c943d8ee553U, 0x3d7010a0bce4a21eU,
  0xbdf5c7e03e177834U, 0x3e25c2563d64a21eU, 0x3d200b15bc36e818U, 0xbd949c943de4a21eU,
  0xbda00b15bd2b7996U, 0x3d949c94be092e12U, 0xbcfb7f213d8376d1U, 0xbeb57a483d4dc51bU,
  0xbea454863d64a21eU, 0xbc092e123d2b7996U, 0x3e0c09b23de4a21eU, 0xbd9a53d4bdd9339cU,
  0xbe33c9bbbe04b35fU, 0x3dcd78d6bd2b3a07U, 0xbeb81195bebc596eU, 0x3cab3a07bc4d78d6U,
  0x3e118aedbc08fb39U, 0x3d1a1aa0bdc4e922U, 0xbe5a5063bc88fb39U, 0x3defb7a4bed82c76U,
  0x3b88fb393e006b85U, 0x3e04b35fbe9c3e8dU, 0xbefc8f31be784757U, 0x3de727f03de727f0U,
  0xbc88fb39bd1a1aa0U, 0x3dcd78d63dc4e922U, 0x3d3c596e3dde983dU, 0xbd88fb39bea6f22dU,
  0x3dcd78d6bc88fb39U, 0x3e381195bf07e943U, 0xbe006b853dd60889U, 0x3da2aa543e15d2c6U,
  0xbd08fb393dd60889U, 0xbc88fb39bcefb7a4U, 0xbc88fb393d08fb39U, 0xbe1e627a3d88fb39U,
  0x3d88fb393d918aedU, 0xbd1a1aa0be2b3a07U, 0xbd806b853da2aa54U, 0xbe04b35f3c08fb39U,
  0xbed3e49c3e3c596eU, 0x3b88fb39bc08fb39U, 0xbc88fb39bc88fb39U, 0xbdd608893e33c9bbU,
  0xbd08fb393d806b85U, 0xbdb3c9bb3da2aa54U, 0x3d1a1aa03d918aedU, 0xbea6f22dbe6fb7a4U,
  0xbeefb7a43d88fb39U, 0xbde727f0bd5e983dU, 0x3d4d78d6bd88fb39U, 0xbcefb7a43d6fb7a4U,
  0xbe9c3e8dbdc4e922U, 0xbdc4e9223dd60889U, 0x3d918aed00000000U, 0xbeb5eda8be118aedU,
  0xbebe7d5b3c4d78d6U, 0x3ccd78d63da2aa54U, 0x3d3c596ebd5e983dU, 0xbdcd78d63d918aedU,
  0xbccd78d600000000U, 0xbe40a1483b88fb39U, 0xbde727f0bd88fb39U, 0xbe118aed3d2b3a07U,
  0xbe6727f0bc88fb39U, 0xbe0d4313bb88fb39U, 0x3d918aedbdab3a07U, 0xbdab3a073d3c596eU,
  0xbdefb7a4bdbc596eU, 0xbe4930fc3dcd78d6U, 0x3d3c596e3e2b3a07U, 0xbd3c596e3d918aedU,
  0xbead5df43cefb7a4U, 0x3c4d78d63ccd78d6U, 0x3dde983d00000000U, 0x3d2b3a073d3c596eU,
  0x3e2f81e13d88fb39U, 0xbdefb7a43e51c0afU, 0x3d08fb393e88fb39U, 0xbdb3c9bbbd2b3a07U,
  0xbd08fb39bd9a1aa0U, 0xbd08fb39bd5e983dU, 0x3e1a1aa0bdd60889U, 0x3d5e983d3e006b85U,
  0x3e1d37ec3c0464fdU, 0xbd0464fd3d46977cU, 0xbd257e3c3d0464fdU, 0x3e1914c5U,
  0x3cc6977c3c8464fdU, 0xbdadc48cbe3e512cU, 0x3e10ce75bd783d5aU, 0xbe0041d53d360adcU,
  0x3db60adc3ca57e3cU, 0xbd94f19dbd783d5aU, 0x3c8464fd3d0464fdU, 0x3c46977c3d9d37ecU,
  0x3ca57e3c3d67b0bbU, 0xbde7b0bb3d0464fdU, 0x3ce7b0bbbe4abaa3U, 0x3de7b0bb3e67b0bbU,
  0xbe67b0bbU, 0xbe2dc48c3d8cab4dU, 0x3b8464fd3d57241bU, 0x3e741a32be0cab4dU,
  0x3e3a2e04be088825U, 0x3dbe512c3df83d5aU, 0xbe14f19d00000000U, 0x3d57241b3e10ce75U,
  0xbe0cab4dbdceddcbU, 0x3dceddcb3d257e3cU, 0x3d8cab4dbe215b14U, 0x3eadc48c3c46977cU,
  0x3e783d5abdceddcbU, 0x3d257e3cbd360adcU, 0x3cc6977c3dbe512cU, 0xbd57241bbdbe512cU,
  0x3eb60adc3e5b4743U, 0x3e5b47433d257e3cU, 0x3ce7b0bb3e257e3cU, 0x3e0888253dc6977cU,
  0xbd8464fd3e088825U, 0x3e0cab4d3ce7b0bbU, 0x3d9d37ec3e31e7b4U, 0xbcc6977c3d9d37ecU,
  0x3e9f49803da57e3cU, 0x3d14f19dbdb60adcU, 0x3d94f19d3e1914c5U, 0x3c46977c3d46977cU,
  0xbdf83d5a3dceddcbU, 0xbce7b0bb3e3e512cU, 0xbcc6977c3df83d5aU, 0x3d0464fd3d94f19dU,
  0xbe3a2e043ddf6a6bU, 0xbd360adc3c0464fdU, 0x3d57241b3dbe512cU, 0xbdeff70bbd9d37ecU,
  0xbe10ce753c0464fdU, 0x3d360adcbdadc48cU, 0xbc0464fdbc0464fdU, 0xbd67b0bb3e0041d5U,
  0xbe783d5a3cc6977cU, 0xbe31e7b43d360adcU, 0xbd0464fdbd67b0bbU, 0xbe67b0bb3d783d5aU,
  0xbe7c60823d14f19dU, 0xbc46977cbd0464fdU, 0xbdceddcbbe2dc48cU, 0x3d14f19dbcc6977cU,
  0xbed51287be3a2e04U, 0xbe10ce75bddf6a6bU, 0xbda57e3cbdeff70bU, 0xbf035c333c46977cU,
  0xbefc6082bc46977cU, 0xbe7c6082be427454U, 0xbe46977cbe3e512cU, 0xbd8464fdbdceddcbU,
  0x3d9d0f903e1d0f90U, 0x3da39ae0bd516a15U, 0xbcb73cd23c1d0f90U, 0xbcd16a153e78adf9U,
  0x3d373cd23e6b9758U, 0x3d9d0f903dde80b6U, 0x3cb73cd23db73cd2U, 0x3c82e24d3e30b182U,
  0x3c82e24dbb516a15U, 0xbd82e24d3dc45374U, 0x3cd16a15be410dcbU, 0x3ceb97583d78adf9U,
  0x3d9d0f903c82e24dU, 0x3d02e24d3dff394aU, 0xbd78adf93d516a15U, 0xbd6b97583d8ff8eeU,
  0xbe7f394abd6b9758U, 0x3e445374bdeb9758U, 0xbe6b97583c516a15U, 0x3d1d0f90bb516a15U,
  0x3d5e80b63d5e80b6U, 0xbcb73cd23c9d0f90U, 0xbdff394a3c9d0f90U, 0xbe516a15be133e97U,
  0xbdd7f5663dff394aU, 0x3e3a827bbceb9758U, 0x3d8ff8ee3e19c9e7U, 0x3e26e0893e2d6bd9U,
  0x3d5e80b63b516a15U, 0x3dcadec4bdaa2631U, 0x3c1d0f903e33f72aU, 0xbc9d0f903c82e24dU,
  0x3d0ff8ee3e26e089U, 0x3e2a26313d445374U, 0x3e30b1823e19c9e7U, 0xbdff394a3c1d0f90U,
  0xbe26e0893e19c9e7U, 0x3dd7f5663daa2631U, 0x3ceb97583d82e24dU, 0xbc9d0f903dc45374U,
  0x3dc45374bd5e80b6U, 0xbe373cd2bd445374U, 0x3e650c073dbdc823U, 0x3d0ff8eebe0cb346U,
  0xbd1d0f90bceb9758U, 0xbe61c65f3e0ff8eeU, 0xbe096d9ebe096d9eU, 0x3d5e80b63daa2631U,
  0xbe445374be3a827bU, 0xbe57f5663dc45374U, 0x3cd16a153d516a15U, 0xbd9d0f90bd78adf9U,
  0xbdbdc823be6edd00U, 0xbbd16a15be410dcbU, 0xbe94e16bbe896d9eU, 0x3db73cd23e3dc823U,
  0xbe96843fbe650c07U, 0xbe373cd23c9d0f90U, 0xbdb0b182be3dc823U, 0xbdaa2631be30b182U,
  0x3d8ff8eebe02e24dU, 0xbdd7f566be02e24dU, 0xbea53db5bc82e24dU, 0x3ceb9758be0627f5U,
  0xbe61c65fbe445374U, 0x3e0ff8ee3b516a15U, 0xbe919bc3becfc741U, 0xbd82e24d3ceb9758U,
  0xbd445374bd0ff8eeU, 0x3c516a153d6b9758U, 0xbe2a2631bc516a15U, 0xbd373cd2be8b1072U,
  0x3e40d40dbd58824dU, 0xbdd8824dbcf39297U, 0x3e2925cc3e0ab379U, 0x3d9b9da73e183b9eU,
  0xbbd8824d3c58824dU, 0x3d4afa28be51be3bU, 0xbb58824dbe1b9da7U, 0xbd9b9da7bcbd7203U,
  0x3c875170bd2fe9dfU, 0xbdf392973b58824dU, 0xbd94d995bb58824dU, 0xbd808d5ebc2261baU,
  0x3e2c87d53cd8824dU, 0x3cbd7203bea0b0b5U, 0x3c875170be696c7bU, 0x3dcafa283db6adf1U,
  0x3e03ef67beaad6d1U, 0xbdf39297bb58824dU, 0x3c58824dbe739297U, 0x3e0e1583bdbd7203U,
  0x3e03ef67beae38daU, 0xbd2fe9df3d14d995U, 0xbe9b9da7be2925ccU, 0xbd4afa28be62a869U,
  0xbe2fe9dfbe14d995U, 0x3d14d9953d075170U, 0xbe76f4a0be8ab379U, 0x3e3a0ffabdafe9dfU,
  0x3e62a869be14d995U, 0xbd7392973d875170U, 0xbd808d5ebd9b9da7U, 0xbd8e1583bed6d148U,
  0x3d9b9da73e552044U, 0x3ca261babd2261baU, 0xbd2261ba3e183b9eU, 0x3e183b9e3da925ccU,
  0xbd14d9953e03ef67U, 0x3e0751703d660a72U, 0x3c58824d3e1effb1U, 0xbd14d9953d58824dU,
  0x3e62a8693e183b9eU, 0x3e51be3b3c2261baU, 0xbd9b9da73ddf465fU, 0x3b58824d3d660a72U,
  0xbcf392973e2261baU, 0x3e2c87d53d875170U, 0x3e696c7b3e008d5eU, 0x3bd8824d3d075170U,
  0xbd808d5e3e03ef67U, 0x3e0ab3793d808d5eU, 0xbcbd72033e5be456U, 0x3e8fc687bc58824dU,
  0x3cd8824d3e5f465fU, 0x3d4afa283dc43616U, 0x3dafe9df3d739297U, 0xbdbd72033dd1be3bU,
  0x3e03ef67bda925ccU, 0xbe3a0ffa3c58824dU, 0x3c2261ba3df39297U, 0x3d58824dbbd8824dU,
  0x3d808d5e3cbd7203U, 0xbe36adf1bdfa56a9U, 0xbdcafa283cf39297U, 0xbca261ba3e2261baU,
  0x3d739297be83ef67U, 0xbe0ab379bddf465fU, 0x3ca261babdd8824dU, 0x3da925cc3c2261baU,
  0xbca261babe2261baU, 0xbe334be8bd3d7203U, 0xbe2261babe14d995U, 0x3cbd7203be03ef67U,
  0xbd9979683da125e0U, 0x3e4b5a763e15a32bU, 0xbdbfd7c1bdf58f0cU, 0xbb758f0c3d0a2077U,
  0xbd9979683cf58f0cU, 0x3e5306ee3e4f30b2U, 0xbd0a20773e8273feU, 0x3e3c0185bb758f0cU,
  0x3dc7843a3df58f0cU, 0x3e11ccefbd28d258U, 0xbe5306eebe064a3bU, 0x3c758f0c3e1d4fa4U,
  0xbe1979683d0a2077U, 0x3dc7843a3c758f0cU, 0x3db07ed13e5e89a3U, 0x3e064a3bbd91ccefU,
  0xbd758f0c3e43adfeU, 0x3bf58f0cbdfd3b84U, 0xbe47843abd8a2077U, 0xbe3c01853e2125e0U,
  0xbe625fdf3e5ab367U, 0x3d0a20773e3fd7c1U, 0x3d47843abbf58f0cU, 0x3d8a2077bda125e0U,
  0xbd66361b3c758f0cU, 0xbdd6dd2abd8a2077U, 0xbe28d258bcf58f0cU, 0xbe71b8d03dde89a3U,
  0xbed306ee3db82b49U, 0xbe0273febd197968U, 0xbd1979683e0a2077U, 0x3d47843a3b758f0cU,
  0xbe66361bbd197968U, 0xbcd6dd2abd91ccefU, 0xbe24fc1cbe197968U, 0xbef3a3ee3cd6dd2aU,
  0xbedc9e85bdbfd7c1U, 0xbdfd3b84bdfd3b84U, 0xbdde89a3bdb82b49U, 0xbe1d4fa4bcd6dd2aU,
  0xbe47843abc382b49U, 0xbd8273fe3cb82b49U, 0xbe0a20773cf58f0cU, 0xbeb07ed1bdc7843aU,
  0xbec5991c3d0a2077U, 0xbdde89a33d56dd2aU, 0x3c382b49bdd6dd2aU, 0x3c382b49bbf58f0cU,
  0xbe0a20773bf58f0cU, 0xbd997968bd197968U, 0x3e2125e0bd197968U, 0xbcd6dd2abb758f0cU,
  0xbe864a3bbda8d258U, 0x3b758f0cU, 0x3de6361b3cf58f0cU, 0xbd0a2077bda125e0U,
  0x3de6361b3d758f0cU, 0xbe1d4fa4bd382b49U, 0xbd47843abd8a2077U, 0xbcf58f0c3cf58f0cU,
  0x3d28d258bcd6dd2aU, 0xbe845f1cbe3c0185U, 0xbdcf30b23d997968U, 0xbdcf30b2bd8a2077U,
  0x3bf58f0cbdb82b49U, 0xbe0df6b33dcf30b2U, 0x3e307ed1bb758f0cU, 0xbda8d2583d8a2077U,
  0xbe11ccefbd758f0cU, 0xbd758f0cbc997968U, 0x3dde89a3be24fc1cU, 0xbcf58f0c3de6361bU,
  0xbc98e87fbbf3c4eaU, 0x3d09b93e3cb8c66bU, 0x3d168f19bc2beaf5U, 0xbdb0f8ebbc1160a7U,
  0x3dfffd833c537dc1U, 0x3d01592c3d966e53U, 0x3d404a3abc446ecbU, 0x3cfa9145bd033a50U,
  0x3d086545bcbf6fe5U, 0xbc7016633db70950U, 0x3d4002373cbbbeaeU, 0x3bb78ca53b88c93aU,
  0x3d2a629f3ccec24bU, 0xbcb62b253cb51c6bU, 0x3df1b466bda7aad1U, 0x3d8db860bd2ad10eU,
  0xbdc65b4ebdd39497U, 0x3d392204bdb92204U, 0xbe1812cdbc539497U, 0xbd9eaf71be843cdeU,
  0xbd1eaf713d392204U, 0x3d539497bbd39497U, 0xbe3fbea9bf1812cdU, 0xbbd39497bc539497U,
  0xbd9eaf713d1eaf71U, 0xbe9812cdbf0fceffU, 0xbe32855f3d539497U, 0xbde0cde0bd9eaf71U,
  0x3e043cdebdd39497U, 0xbdc65b4e3d043cdeU, 0xbdee072abd843cdeU, 0xbe1eaf713dfb4073U,
  0x3dc65b4e3d843cdeU, 0x3e254c163db92204U, 0x3d6e072a3dc65b4eU, 0xbdd39497bd392204U,
  0xbe60cde0bd539497U, 0xbdb92204bbd39497U, 0x3e043cdebe917628U, 0x3dfb40733db92204U,
  0xbee0cde0bc539497U, 0xbdee072abf51ed6eU, 0xbdd39497bc539497U, 0x3d539497bd917628U,
  0x3e043cdebc539497U, 0xbc539497beee072aU, 0xbc539497be465b4eU, 0x3dfb4073be9eaf71U,
  0x3dfb40733e465b4eU, 0xbd9176283de0cde0U, 0x3d043cde3d1eaf71U, 0x3dfb4073bd539497U,
  0xbe676a853d917628U, 0xbd9176283d1eaf71U, 0x3e3fbea9beaf370dU, 0x3dc65b4e3d043cdeU,
  0xbe676a853db92204U, 0xbd6e072abf51ed6eU, 0x3cd39497bc539497U, 0xbc9eaf713d1eaf71U,
  0x3e5a313cbd392204U, 0x3d917628bf20569aU, 0xbe043cdebd392204U, 0x3d539497bdabe8bbU,
  0x3dd394973e1812cdU, 0x3e043cdeU, 0x3d3922043db92204U, 0x3c5394973c9eaf71U,
  0xbe4cf7f2be117628U, 0x3d3922043c539497U, 0xbbd39497be539497U, 0xbd539497bde0cde0U,
  0xbe843cde3d843cdeU, 0xbd043cdebf0fceffU, 0xbd9eaf713bd39497U, 0xbd539497bc539497U,
  0xbd043cdebc9eaf71U, 0xbd539497be878b31U, 0xbd1eaf71bd043cdeU, 0xbc539497bd1eaf71U,
  0xbd043cdebd6e072aU, 0xbd1eaf71U, 0xbc5394973d843cdeU, 0x3d1eaf713d843cdeU,
  0x3dabe8bb3c539497U, 0x3d843cde3d917628U, 0xbcd39497bc9eaf71U, 0x3d392204bd539497U,
  0xbdd39497bd917628U, 0x3c9eaf713d043cdeU, 0x3dabe8bbbc9eaf71U, 0x3cd39497bcd39497U,
  0xbe32855f3d392204U, 0x3d1eaf713c9eaf71U, 0x3d1eaf71bd539497U, 0x3d6e072abdc65b4eU,
  0x3cd39497bc539497U, 0xbd6e072a3d392204U, 0x3dd394973e0ad983U, 0x3dabe8bb3d917628U,
  0x3e254c163d917628U, 0x3e3922043d1eaf71U, 0xbd9eaf713d043cdeU, 0xbd9eaf713d6e072aU,
  0xbdabe8bbbd392204U, 0x3dd39497bbd39497U, 0x3dfb40733c9eaf71U, 0x3cd39497bd917628U,
  0xbdee072abd043cdeU, 0xbd6e072a3c9eaf71U, 0xbdc65b4e3dd39497U, 0x3d1eaf713dc65b4eU,
  0xbd9eaf71be2be8bbU, 0xbde0cde0bd6e072aU, 0x3e1812cd3d6e072aU, 0x3d1eaf713d392204U,
  0x3e254c163db92204U, 0x3de0cde03d043cdeU, 0xbd843cde3db92204U, 0xbbd39497bcd39497U,
  0x3dee072abd1eaf71U, 0x3e3fbea93cd39497U, 0x3d043cde3e043cdeU, 0x3c5394973dabe8bbU,
  0xbe5a313cbdd39497U, 0x3c5394973d843cdeU, 0x3dabe8bb3e32855fU, 0x3d1eaf713de0cde0U,
  0x3d9eaf71be676a85U, 0xbe676a853d917628U, 0x3d3922043dfb4073U, 0x3dee072a3d1eaf71U,
  0x3e1812cd00000000U, 0x3e117628bd1eaf71U, 0x3d6e072abdfb4073U, 0x3bd39497bde0cde0U,
  0xbc5394973d9eaf71U, 0xbbd394973dc65b4eU, 0x3c5394973bd39497U, 0xbdabe8bb3d539497U,
  0x3d392204bd1eaf71U, 0x3d5394973e0ad983U, 0xbd043cde3d392204U, 0xbdb92204bd917628U,
  0x3d1eaf71be1eaf71U, 0xbe043cdebd539497U, 0xbd5394973e539497U, 0x3dc65b4ebdee072aU,
  0x3cd394973d1eaf71U, 0x3de0cde0be6e072aU, 0xbdd39497bdfb4073U, 0xbd1eaf71bd043cdeU,
  0x3d9176283d539497U, 0x3d9eaf71be043cdeU, 0xbd1eaf71bdd39497U, 0xbe0ad9833e117628U,
  0xbc5394973d539497U, 0xbc5394973e043cdeU, 0x3d3922043dee072aU, 0xbdee072abdabe8bbU,
  0xbe3b7f53bd31a10cU, 0xbd455d9bbe4a4cbfU, 0xbd8a27ecbe406e77U, 0xbe4a4cbfbdc55d9bU,
  0x3d455d9b3da7c2c4U, 0xbc6cd6babcc55d9bU, 0xbe7ba426bea2d3a0U, 0xbe0049a5be0a27ecU,
  0x3e0049a5bc6cd6baU, 0xbdcf3be33e2cb1e8U, 0xbd1de47cbd31a10cU, 0x3d0a27ec3d940634U,
  0xbd31a10cbc6cd6baU, 0x3d9de47c3de2f872U, 0xbe67e796bd455d9bU, 0x3de2f8723d455d9bU,
  0xbcecd6ba3dbb7f53U, 0x3e1406343cecd6baU, 0x3d31a10cbdcf3be3U, 0xbe87b05b3e140634U,
  0xbd1de47c3e0a27ecU, 0xbea54b323e27c2c4U, 0xbda7c2c4bea05c0eU, 0x3d1de47cbd1de47cU,
  0xbd591a2a3d31a10cU, 0xbdcf3be3beaf297aU, 0x3decd6ba3e22d3a0U, 0x3c6cd6babd940634U,
  0xbf0c9f7e3c1de47cU, 0x3b9de47cbd9de47cU, 0x3cecd6babc6cd6baU, 0x3d591a2abb9de47cU,
  0xbb9de47c3da7c2c4U, 0x3e1de47c3dc55d9bU, 0xbdbb7f53bc6cd6baU, 0xbc6cd6ba3dd91a2aU,
  0xbd0a27ec3cecd6baU, 0xbe9de47c3c1de47cU, 0x3e62f8723d9de47cU, 0xbd1de47cbcc55d9bU,
  0xbde2f8723c1de47cU, 0xbdb1a10c3de2f872U, 0xbd6cd6ba3e0a27ecU, 0xbd1de47c00000000U,
  0xbe8c9f7e3dcf3be3U, 0xbe31a10cbea54b32U, 0x3cc55d9b3e18f558U, 0xbeccc4513d455d9bU,
  0xbcecd6babcc55d9bU, 0x3e3b7f533d8049a5U, 0x3d591a2abd8a27ecU, 0xbc1de47cbdc55d9bU,
  0x3d455d9b3d591a2aU, 0xbe31a10c3df6b502U, 0xbc6cd6ba00000000U, 0x3d591a2a3c9de47cU,
  0x3cecd6ba3d1de47cU, 0x3decd6babe0a27ecU, 0xbc9de47c3cecd6baU, 0x3db1a10cbd940634U,
  0x3e6cd6babdc55d9bU, 0xbe6cd6babe0049a5U, 0xbd0a27ec3db1a10cU, 0xbee570043d31a10cU,
  0xbcecd6ba3e0f1710U, 0xbd591a2a3c9de47cU, 0x3d9406343d9de47cU, 0x3dcf3be33dbb7f53U,
  0xbd8049a5bb9de47cU, 0xbc9de47c3e0538c9U, 0xbd0a27ec3d9de47cU, 0x3db1a10c3d1de47cU,
  0x3d9de47c3e0538c9U, 0x3e18f5583d1de47cU, 0x3df6b5023c9de47cU, 0x3d8a27ecbd455d9bU,
  0x3e18f558bdb1a10cU, 0xbd0a27ecbdb1a10cU, 0x3df6b5023de2f872U, 0xbdcf3be33d31a10cU,
  0xbcc55d9bbd1de47cU, 0xbcc55d9bbc9de47cU, 0x3d1de47c3f01856eU, 0x3c6cd6ba3e18f558U,
  0xbe0f1710bd8a27ecU, 0xbd591a2abdcf3be3U, 0x3c6cd6babd6cd6baU, 0xbcecd6ba3db1a10cU,
  0xbd8049a53d31a10cU, 0x3eccc4513cc55d9bU, 0x3c9de47cbcc55d9bU, 0xbe8538c93d8049a5U,
  0x3e7ba4263df6b502U, 0x3e0f1710bd8a27ecU, 0x3e2cb1e83e0049a5U, 0x3c6cd6babd455d9bU,
  0xbd6cd6ba3d8a27ecU, 0xbda7c2c4bd8049a5U, 0xbd9de47c3e9de47cU, 0x3c1de47c3d8a27ecU,
  0x3da7c2c4be1de47cU, 0x3d9de47cbdd91a2aU, 0x3e4a4cbfbe0f1710U, 0x3b9de47c3d1de47cU,
  0xbe0f17103cecd6baU, 0xbb9de47cbd8049a5U, 0xbd8a27ec3d591a2aU, 0xbe140634bd0a27ecU,
  0x3e9de47cbd6cd6baU, 0xbdd91a2abdf6b502U, 0xbd31a10c00000000U, 0xbdb1a10cbe967dc6U,
  0xbe0049a5bd8049a5U, 0xbef6b502be22d3a0U, 0x3c6cd6ba3ea05c0eU, 0xbe140634bd455d9bU,
  0xbdcf3be33decd6baU, 0x3dc55d9bbe0f1710U, 0x3dc55d9bbe36902fU, 0xbdcf3be33dbb7f53U,
  0x3e0049a5bc6cd6baU, 0x3f1ca8b3bd455d9bU, 0xbda7c2c4be455d9bU, 0x3e0538c93d6cd6baU,
  0xbe8049a5be7ba426U, 0xbe9406343d9de47cU, 0xbe406e77bdc55d9bU, 0xbe8538c9be8538c9U,
  0xbe5e094ebe0049a5U, 0xbe9de47cbdf6b502U, 0xbd8049a5be27c2c4U, 0xbe406e77bed42b07U,
  0x3c1de47c3cecd6baU, 0x3d0a27ec3cecd6baU, 0xbeacb1e8be0f1710U, 0xbd591a2abd455d9bU,
  0x3dd91a2abd940634U, 0xbe22d3a0be1de47cU, 0x3d8a27ecbc6cd6baU, 0x3e18f5583d8a27ecU,
  0xbe918ea2be4f3be3U, 0xbe1de47c3e1de47cU, 0xbeaa3a56be27c2c4U, 0x3c9de47cbe22d3a0U,
  0x3cbea5b4bcab9522U, 0x3a988490bdab9522U, 0xbcbea5b43cab9522U, 0xbd4369d8bd9faac7U,
  0xbd305946bd7c9b8eU, 0xbd8a382200000000U, 0xbda93310bdc5cbebU, 0xbcb51d6b3d305946U,
  0x3c3ea5b43da46eebU, 0xbda6d0febd567a6aU, 0xbcee4f21bd0a3822U, 0x3c988490bcab9522U,
  0xbda93310bd220cd9U, 0xbdf31346bdf31346U, 0xbd51b6463c0573feU, 0x3d698afc3d8311ecU,
  0xbda20cd9bdd1b646U, 0xbdb05946bdd67a6aU, 0xbd1d48b4bd567a6aU, 0x3a988490bd988490U,
  0x3ce4c6d8bdd8dc7dU, 0xbd39e1903d64c6d8U, 0x3c188490bd0573feU, 0x3c0573fe3c188490U,
  0x3d988490bc64c6d8U, 0xbdd41858bdb51d6bU, 0xbddb3e8f3cbea5b4U, 0xbdca900f3cc82dfdU,
  0xbdab95223d13c06cU, 0xbcee4f21bdd67a6aU, 0x3cee4f21bd6e4f21U, 0xbdc5cbeb3c0573feU,
  0x3d9faac7bd8efc47U, 0x3d482dfd3cb51d6bU, 0x3d220cd9bb188490U, 0x3a988490bd8efc47U,
  0x3d2b9522bdd67a6aU, 0xbc64c6d8bd39e190U, 0xbe1753873d188490U, 0xbd1884903d482dfdU,
  0x3c2b9522bd8311ecU, 0x3da6d0febdb9e190U, 0xbda20cd93d13c06cU, 0xbd351d6b3d9d48b4U,
  0x3d26d0febdc82dfdU, 0xbdfa397cbd77d76aU, 0xbde98afcbd6e4f21U, 0xbdadf7343ce4c6d8U,
  0x3cc82dfd3be4c6d8U, 0xbd77d76abde002b4U, 0x3da6d0fe3d4369d8U, 0x3c77d76abca20cd9U,
  0x3d698afc3d39e190U, 0xbde4c6d83d13c06cU, 0xbd5b3e8fbd9ae6a2U, 0x3d87d6103b64c6d8U,
  0xbd80afda3c0573feU, 0x3ce4c6d8bd1d48b4U, 0xbdc82dfd3cf7d76aU, 0xbdbea5b4bdd1b646U,
  0xbd698afcbd731346U, 0xbdbea5b43d8311ecU, 0xbcb51d6bbdbea5b4U, 0x3d4cf222bd8573feU,
  0x3d1d48b4U, 0xbdc82dfdbc77d76aU, 0x3d9d48b43d0573feU, 0xbd567a6a3d39e190U,
  0x3d8311ecbc3ea5b4U, 0xbbe4c6d83c8efc47U, 0x3d567a6a3da93310U, 0xbd26d0fe3be4c6d8U,
  0xbdbc43a23d915e59U, 0xbb64c6d8bdfa397cU, 0xbdc107c6bd8311ecU, 0xbcd1b6463cdb3e8fU,
  0x3c64c6d8bdb05946U, 0x3ce4c6d8bd8311ecU, 0x3c8efc47bd2b9522U, 0xbdbea5b43d0efc47U,
  0xbde728ea3cf7d76aU, 0xbcdb3e8f3b64c6d8U, 0xbd567a6abe06a507U, 0xbd6e4f21bda93310U,
  0x3cd1b6463c8efc47U, 0x3bbea5b4bd39e190U, 0xbd64c6d8bd2b9522U, 0x3d2b95223b188490U,
  0xbd5b3e8f3d4369d8U, 0xbc2b9522bd00afdaU, 0xbcc82dfdbda20cd9U, 0xbd482dfd3db77f7dU,
  0x3dadf7343d988490U, 0xbd39e1903c2b9522U, 0xbdb2bb593d5b3e8fU, 0xbde728ea3bbea5b4U,
  0x3da93310bd7c9b8eU, 0xbe07d610bd731346U, 0xbc0573fe3d51b646U, 0xbd00afdabd8a3822U,
  0x3d188490bd93c06cU, 0x3d567a6abc51b646U, 0xbdb2bb59bdc82dfdU, 0xbdcf54343d87d610U,
  0xbdee4f213c8573feU, 0xbda20cd93d4369d8U, 0xbd51b646bdb77f7dU, 0xbd351d6b3c51b646U,
  0x3d4369d8bdcf5434U, 0xbd87d610bd8a3822U, 0x3d0efc47bdc369d8U, 0xbd8c9a353d731346U,
  0xbd26d0febc0573feU, 0xbdd418583cd1b646U, 0x3d305946bd988490U, 0x3d9ae6a23d6002b4U,
  0x3d87d610bdf57558U, 0xbbe4c6d83d77d76aU, 0x3d0a3822bc2b9522U, 0xbe0573febcee4f21U,
  0x3d39e190bd8efc47U, 0xbda20cd9bd5b3e8fU, 0xbdc369d8bd8c9a35U, 0xbd351d6bbd96227eU,
  0x3d5b3e8f3cab9522U, 0x3b1884903d9d48b4U, 0x3d9d48b43d220cd9U, 0xbdcf54343d188490U,
  0xbda9331000000000U, 0xbdd8dc7dbdadf734U, 0xbdab95223ca20cd9U, 0xbd5b3e8fbd3ea5b4U,
  0xbcf7d76a3a988490U, 0x3d3059463c0573feU, 0xbd8573fe3d731346U, 0xbc51b646be14f175U,
  0x3b988490bd482dfdU, 0x3d26d0febcb51d6bU, 0xbcdb3e8f3da93310U, 0x3d351d6bbce4c6d8U,
  0xbd6002b4bc64c6d8U, 0xbdd8dc7dbd9d48b4U, 0xbd0573fe00000000U, 0xbd93c06c3cb51d6bU,
  0xbd648af03cc07500U, 0x3c7092403dc07500U, 0xbc1057c0be82cf86U, 0xbd1057c0be075244U,
  0xbdd27ff8bd845070U, 0xbdde87483e0d55ecU, 0x3c7092403bc07500U, 0x3d8a5418bd286660U,
  0xbe0752443dcc7c50U, 0xbdea8e98be286660U, 0xbde48af03bc07500U, 0xbe2e6a083cd883a0U,
  0x3ebef4163cc07500U, 0xbcd883a0be82cf86U, 0x3d1c5f10be5581ccU, 0x3de48af0be497a7cU,
  0x3dcc7c50bd845070U, 0x3d0450703c709240U, 0x3ca86660be346db0U, 0x3c407500be5b8574U,
  0xbd045070bd709240U, 0xbe9057c0bbc07500U, 0x3b4075003d9c5f10U, 0x3d045070bda262b8U,
  0x3d5883a03d5883a0U, 0xbe2e6a08bdae6a08U, 0x3d8450703d709240U, 0xbdea8e98bd9c5f10U,
  0xbcf09240bd1057c0U, 0xbd045070bdc07500U, 0x3dba7158be2e6a08U, 0xbdba7158be286660U,
  0x3c7092403cf09240U, 0xbe2e6a083cd883a0U, 0xbd7c9990bd286660U, 0xbc709240be1c5f10U,
  0x3ca866603c407500U, 0xbd286660bd346db0U, 0x3c9057c03e075244U, 0xbda262b83d7c9990U,
  0x3cf092403d9c5f10U, 0xbe1057c0bd286660U, 0xbd4c7c50bda262b8U, 0x3da262b83cf09240U,
  0xbe4c7c503d4c7c50U, 0xbe1f60e43c1057c0U, 0x3ca86660be4f7e24U, 0xbe195d3c3d346db0U,
  0x3dde8748be0a5418U, 0x3bc075003d286660U, 0x3bc075003d286660U, 0xbd9c5f10be376f84U,
  0x3bc07500bd346db0U, 0xbcc075003d965b68U, 0x3d845070bd9c5f10U, 0xbc709240bd1c5f10U,
  0x3df09240bdba7158U, 0xbd9057c0bd4c7c50U, 0xbd4c7c503c9057c0U, 0x3dba7158bdd27ff8U,
  0xbdea8e98bc709240U, 0xbdd27ff8bd346db0U, 0x3cd883a0bde48af0U, 0xbd7c99903cc07500U,
  0xbda262b8bd045070U, 0x3db46db0bdcc7c50U, 0x3c407500be135994U, 0xbdd883a000000000U,
  0x3d648af0bd5883a0U, 0xbdfc99903d286660U, 0xbcf092403cd883a0U, 0x3d4c7c503c1057c0U,
  0xbc9057c0bc1057c0U, 0xbe0752443e045070U, 0xbd9c5f103d9c5f10U, 0x3d0450703dc07500U,
  0xbdc07500bd965b68U, 0xbcd883a03d8a5418U, 0x3d5883a0bd5883a0U, 0xbdae6a08bca86660U,
  0xbd1057c03da86660U, 0x3d2866603d1c5f10U, 0xbc1057c0bc407500U, 0xbd1057c0be165b68U,
  0x3d1057c03c709240U, 0xbd7c9990bc709240U, 0xbe0752443da262b8U, 0xbdcc7c503dc678a8U,
  0x3dea8e983d7c9990U, 0xbd8450703d9057c0U, 0xbcc07500bc709240U, 0xbcf09240bd7c9990U,
  0xbe0d55ecbdb46db0U, 0xbd286660bd407500U, 0xbe2262b8bd5883a0U, 0x3bc0750000000000U,
  0x3d7c9990bd7c9990U, 0x3dd883a03da86660U, 0xbdea8e983d9057c0U, 0x3d0450703bc07500U,
  0xbd845070be014e9cU, 0xbda262b83da262b8U, 0xbdf695e8bd4c7c50U, 0x3df695e83d648af0U,
  0x3d1c5f103d8a5418U, 0xbbc075003c407500U, 0xbdf092403cd883a0U, 0xbe195d3c3df695e8U,
  0xbd1057c0bd045070U, 0x3b407500bd845070U, 0xbd346db03c9057c0U, 0xbca866603dde8748U,
  0x3d4c7c50be0a5418U, 0x3d286660bb407500U, 0xbdc678a8bd648af0U, 0xbdb46db03c407500U,
  0x3df695e8bcf09240U, 0xbcc075003d4c7c50U, 0xbd8a54183d648af0U, 0xbd7092403dc678a8U,
  0xbdde87483d845070U, 0x3e497a7c3d407500U, 0x3d1057c03e014e9cU, 0xbd2866603d648af0U,
  0x3dde8748bc9057c0U, 0x3d407500be0d55ecU, 0x3d045070bd1057c0U, 0x3da86660be2e6a08U,
  0xbda866603e135994U, 0xbdd27ff8bca86660U, 0xbdf695e8bda86660U, 0x3da86660be527ff8U,
  0x3d0450703d407500U, 0xbd9057c0bd709240U, 0x3d709240bd286660U, 0x3d1c5f103d9057c0U,
  0x3d4c7c503de48af0U, 0x3dea8e98bd7c9990U, 0xbd845070bcd883a0U, 0xbd1057c03df695e8U,
  0xbe8d55ecU, 0xbdfc999000000000U, 0xbd7c99903db46db0U, 0xbdf695e83d346db0U,
  0x3ce4333f3c18222aU, 0xbce4333f3dd12efaU, 0xbe0ea007be3aff54U, 0x3cb17d31be4e0399U,
  0x3db7d3f3bcfd8e46U, 0xbe0b74a63ce4333fU, 0xbd9e78ec3d7d8e46U, 0x3d24cfae3e01f284U,
  0x3cb17d313e0b74a6U, 0xbd5785bc3ddddc7dU, 0xbdd12efa3cb17d31U, 0x3d70e0c2U,
  0xbde4333fbe448176U, 0xbe18222abe545a5bU, 0xbd4ad838bd4ad838U, 0xbd7d8e463da4cfaeU,
  0x3bcad838bd70e0c2U, 0xbdea8a013df73784U, 0xbe0ea007be740c23U, 0x3d9e78ecbe773784U,
  0x3c7d8e46bc18222aU, 0xbdbe2ab43dcad838U, 0xbda4cfaebb4ad838U, 0xbd91cb683d317d31U,
  0x3dd12efa3c4ad838U, 0xbe545a5b3dd12efaU, 0xbdd12efabd91cb68U, 0xbd851de53de4333fU,
  0xbd5785bcbd7d8e46U, 0x3d4ad838be21a44dU, 0xbb4ad838bd98222aU, 0x3e21a44d3d8b74a6U,
  0x3cb17d313d317d31U, 0x3d5785bcbd5785bcU, 0x3d98222abe4ad838U, 0x3cfd8e46bdcad838U,
  0x3d851de5bd4ad838U, 0xbe9361193db7d3f3U, 0xbd91cb68bccad838U, 0x3d91cb68bccad838U,
  0xbc7d8e46bd5785bcU, 0xbe0849463d4ad838U, 0xbd18222a3db7d3f3U, 0xbde4333fbdc48176U,
  0xbec942883dab266fU, 0xbbcad838bdb17d31U, 0x3c7d8e46be084946U, 0x3e1e78ecbe14f6c9U,
  0xbd851de53dbe2ab4U, 0x3ccad838bd7d8e46U, 0xbdb17d31be9035b8U, 0x3cfd8e46bcb17d31U,
  0x3e0849463c4ad838U, 0xbe6db5623d91cb68U, 0xbb4ad83800000000U, 0x3d0b74a6bc98222aU,
  0xbc4ad838bd4ad838U, 0x3d5785bc3bcad838U, 0x3d9e78ec3da4cfaeU, 0xbddddc7dbd4ad838U,
  0xbe24cfaebcfd8e46U, 0xbe5ab11c3d851de5U, 0xbccad8383d317d31U, 0x3c98222a3d98222aU,
  0xbda4cfaebc7d8e46U, 0xbc4ad8383dea8a01U, 0xbd70e0c2be3e2ab4U, 0x3c18222abdb17d31U,
  0x3d3e2ab4bccad838U, 0xbe5785bc3d317d31U, 0xbccad8383d7d8e46U, 0xbc18222a3dc48176U,
  0x3dd12efabc4ad838U, 0xbd851de53dcad838U, 0xbd98222a3d98222aU, 0xbd24cfaebc98222aU,
  0xbe2e51d0bc98222aU, 0xbc7d8e463cb17d31U, 0x3cb17d31bd70e0c2U, 0xbdab266f3c4ad838U,
  0x3d317d313d70e0c2U, 0xbd18222a3dd785bcU, 0xbcb17d31be34a892U, 0xbd64333fbe27fb0eU,
  0x3dab266f3d851de5U, 0xbddddc7d3ce4333fU, 0xbdab266fbd8b74a6U, 0x3bcad838bd4ad838U,
  0x3dab266fbd91cb68U, 0xbe0ea0073cfd8e46U, 0xbdea8a0100000000U, 0x3cfd8e463dc48176U,
  0xbea00e9cbd24cfaeU, 0x3d18222abdcad838U, 0xbd3e2ab4bd64333fU, 0xbc4ad838bd64333fU,
  0xbd18222a3bcad838U, 0x3e01f284bdab266fU, 0x3d7d8e46be968c7aU, 0xbe4481763c98222aU,
  0x3df73784bdb17d31U, 0xbe084946bdfd8e46U, 0xbe317d313d64333fU, 0x3d7d8e463bcad838U,
  0x3d18222a3d8b74a6U, 0x3d64333fbc18222aU, 0x3c7d8e463c4ad838U, 0xbd9e78ec3d98222aU,
  0xbe0b74a63d98222aU, 0xbdfd8e46bcfd8e46U, 0xbdb17d31be968c7aU, 0x3c18222abe084946U,
  0x3d91cb683e084946U, 0xbdb7d3f3bd317d31U, 0x3d18222abe70e0c2U, 0x3d317d31be0ea007U,
  0x3e0b74a63d18222aU, 0xbd91cb68bd851de5U, 0x3dab266f3dea8a01U, 0xbd64333f3cfd8e46U,
  0x3b4ad838bccad838U, 0xbb4ad8383e14f6c9U, 0x3da4cfae3d3e2ab4U, 0x3cb17d31bc4ad838U,
  0xbe11cb68bd70e0c2U, 0xbdc48176bd317d31U, 0x3d7d8e463d24cfaeU, 0x3dbe2ab4bd64333fU,
  0xbd8b74a63ccad838U, 0xbe0b74a63e0ea007U, 0xbd851de5bdab266fU, 0x3da4cfaebc98222aU,
  0x3d317d313d98222aU, 0xbe2e51d0bce4333fU, 0xbe2e51d0bd98222aU, 0xbd8b74a6bd4ad838U,
  0x3d0b74a6bd4ad838U, 0x3cfd8e463d64333fU, 0x3da4cfaebd98222aU, 0xbd4ad8383d91cb68U,
  0x3d8b74a63d0b74a6U, 0x3d851de5bdb17d31U, 0xbd4ad8383df0e0c2U, 0x3df737843db7d3f3U,
  0x3d7b3954bd081463U, 0xbd081463bd881463U, 0xbbfb3954be4980a6U, 0xbc277b8dbdd15a70U,
  0xbba77b8d3ba77b8dU, 0x3db72f223d31f346U, 0x3dd6964d3cfb3954U, 0x3dd6964dbc515a70U,
  0x3d3c6affbb277b8dU, 0xbe0ab2513dd15a70U, 0x3c277b8dbe0d503fU, 0x3d7b3954bb277b8dU,
  0x3e63abf4bd9d03d4U, 0x3b277b8d3d31f346U, 0x3d6649e23d515a70U, 0x3cbc6aff3b277b8dU,
  0x3c7b3954bca77b8dU, 0x3cbc6aff3dbc6affU, 0xbd82d886be6b85beU, 0xbb277b8dbe003a98U,
  0x3d1d03d4bb277b8dU, 0x3d9d03d43d8d503fU, 0x3d8814633e02d886U, 0x3d82d8863dbc6affU,
  0xbc277b8d3d1d03d4U, 0xbe3c6aff3db72f22U, 0xbe0fee2dbdb1f346U, 0x3dc6e2b73d081463U,
  0x3c928c1bbddbd229U, 0x3c277b8dbca77b8dU, 0x3d6649e2bd31f346U, 0x3de10e053d081463U,
  0x3dfb39543d928c1bU, 0xbd97c7f83d82d886U, 0xbda77b8dbc928c1bU, 0xbd6649e2bd8d503fU,
  0xbc277b8d3dacb769U, 0x3b277b8dbd3c6affU, 0x3dc6e2b73dd15a70U, 0x3d277b8dU,
  0x3dc6e2b7bdb72f22U, 0xbe1fa1c23dfb3954U, 0xbd3c6aff3b277b8dU, 0x3dc6e2b7bba77b8dU,
  0x3df5fd77bd8d503fU, 0xbdbc6affbbfb3954U, 0xbe39cd10be7dd742U, 0x3e02d8863c7b3954U,
  0xbd1d03d4U, 0x3de649e2bcd15a70U, 0xbd8d503fbde10e05U, 0xbe4444c9bd5bd229U,
  0x3ba77b8dbda77b8dU, 0x3cfb3954bca77b8dU, 0xbe5e7017bde10e05U, 0xbd9d03d4bd3c6affU,
  0x3da77b8d3dc6e2b7U, 0xbdeb85bebe128c1bU, 0xbd277b8d3d9d03d4U, 0x3d5bd229bd5bd229U,
  0xbe84277dbd8d503fU, 0xbe4444c93c7b3954U, 0xbe5bd229be4444c9U, 0x3d5bd229bd46e2b7U,
  0x3ca77b8d3cd15a70U, 0x3e02d886bda23fb1U, 0x3d3c6affbe3f08edU, 0xbc928c1b3dc1a6dbU,
  0x3dcc1e94bdd15a70U, 0x3cfb3954bcbc6affU, 0xbe610e05bd3c6affU, 0xbd8d503fbc515a70U,
  0xbe3491343dfb3954U, 0xbe0ab251bdb72f22U, 0x3dfb39543db1f346U, 0xbd881463bd7b3954U,
  0xbe8e9f36bd928c1bU, 0xbe7b3954bcd15a70U, 0xbe2cb7693dd6964dU, 0xbc277b8dbd7b3954U,
  0xbe2a197bbd881463U, 0xbdb1f346bd881463U, 0x3e0ab251be53f85eU, 0x3dc6e2b7bd128c1bU,
  0xbc277b8dU, 0x3d70c19bbd277b8dU, 0xbea62c96be56964dU, 0x3db72f22U,
  0xbca77b8d3e0ab251U, 0xbd97c7f8bd277b8dU, 0x3c928c1b3d97c7f8U, 0x3d31f3463d515a70U,
  0x3c277b8dbcfb3954U, 0xbe63abf4bce649e2U, 0xbd9d03d43db72f22U, 0xbd3c6aff3ce649e2U,
  0x3d6649e2bd881463U, 0xbd70c19b3e0fee2dU, 0x3d3c6affbda23fb1U, 0xbbfb3954be46e2b7U,
  0xbd70c19bbd515a70U, 0xbba77b8dbdbc6affU, 0xbe913d24be081463U, 0x3ca77b8d3d515a70U,
  0x3bfb39543d515a70U, 0xbde10e05bd97c7f8U, 0x3da77b8dbd70c19bU, 0x3d97c7f83d515a70U,
  0xbba77b8dbb277b8dU, 0x3dc1a6dbbd46e2b7U, 0x3cbc6affbd515a70U, 0x3e0576743c928c1bU,
  0xbcbc6aff3bfb3954U, 0xbd928c1b3d9d03d4U, 0x3bfb3954be5bd229U, 0x3dc6e2b7be789b65U,
  0xbd82d886be31f346U, 0x3d928c1bbe152a0aU, 0xbe3f08ed3d3c6affU, 0xbd46e2b7bd277b8dU,
  0xbe128c1bbbfb3954U, 0xbdcc1e943e3c6affU, 0xbd881463bd31f346U, 0xbdcc1e94bdf5fd77U,
  0x3c7b39543c515a70U, 0xbb277b8dbdd15a70U, 0x3deb85bebe2a197bU, 0x3dcc1e94be70c19bU,
  0xbd1d03d4bddbd229U, 0xbe0d503f3d881463U, 0xbe0fee2dbe75fd77U, 0xbca77b8dbe5bd229U,
  0xbc928c1bbdeb85beU, 0xbd081463be17c7f8U, 0xbd31f3463d5bd229U, 0x3cd15a70bde10e05U,
  0xbc928c1bU, 0xbddbd2293e8ab251U, 0xbd70c19b3bfb3954U, 0xbe128c1bbe003a98U,
  0xbd1d03d43ca77b8dU, 0xbe59343bbb277b8dU, 0x3d31f346bd3c6affU, 0x3db1f346be057674U,
  0x3dab8558bdcab4dcU, 0xbdf1b042be5a4c9fU, 0x3cf97c233e1bed96U, 0xbdda4c9f3b797c23U,
  0xbd2b8558bdc2e8fbU, 0xbdab85583d5a4c9fU, 0x3b797c23bdb35139U, 0xbdf1b042bdb35139U,
  0x3d797c23be1421b5U, 0x3dab8558bd8489f3U, 0x3dda4c9fbe0489f3U, 0xbd1bed963c9bed96U,
  0x3dda4c9f3c3b1d1aU, 0xbe00a4023d2b8558U, 0xbd2b85583e65fe70U, 0x3bf97c233e5280beU,
  0xbd0c55d43e0c55d4U, 0x3d0c55d4bd8c55d4U, 0xbcda4c9f3e1421b5U, 0x3c3b1d1a3e0c55d4U,
  0x3cf97c23bd2b8558U, 0x3cf97c23be37372aU, 0x3d3b1d1abde9e461U, 0xbdcab4dcbdb35139U,
  0x3d2b8558bdc2e8fbU, 0x3e1807a53d8c55d4U, 0xbd8489f3bdf1b042U, 0xbdda4c9fbdb35139U,
  0x3b797c23bd4ab4dcU, 0x3d4ab4dc3b797c23U, 0x3d1bed963e1807a5U, 0xbc797c23bc3b1d1aU,
  0xbbf97c23bd0c55d4U, 0x3d4ab4dc3d0c55d4U, 0xbc797c233e621880U, 0x3e00a4023e4e9acdU,
  0xbd9bed96bdb35139U, 0x3d0c55d4bdcab4dcU, 0xbe3b1d1abe1807a5U, 0xbcda4c9f3e1807a5U,
  0xbe5666aebcbb1d1aU, 0x3e4e9acd3c797c23U, 0x3dcab4dcbdc2e8fbU, 0x3bf97c233dcab4dcU,
  0x3dab85583da3b977U, 0xbcf97c23bdab8558U, 0x3d2b85583e1421b5U, 0xbe103bc4U,
  0xbda3b9773c797c23U, 0xbde21880bdf1b042U, 0xbd9421b53e5e328fU, 0xbc9bed963e42e8fbU,
  0x3d4ab4dc00000000U, 0xbcbb1d1abdab8558U, 0xbd4ab4dc3d5a4c9fU, 0x3c3b1d1a3e279f68U,
  0x3d0c55d4bdab8558U, 0x3db35139be1807a5U, 0xbdc2e8fbbd1bed96U, 0x3d2b8558bd2b8558U,
  0x3e0489f3bde21880U, 0xbe5666aebd4ab4dcU, 0xbdb35139bdda4c9fU, 0xbd1bed96bd9bed96U,
  0xbe797c23bde21880U, 0xbdf97c23be867cebU, 0xbe3351393e1fd386U, 0xbe5280bebc3b1d1aU,
  0xbd5a4c9f3d0c55d4U, 0xbd8489f3be00a402U, 0xbe00a402bc797c23U, 0xbe0c55d4bc797c23U,
  0x3de9e461bd9421b5U, 0x3dcab4dc3cda4c9fU, 0xbdc2e8fbbd2b8558U, 0x3d797c233d9bed96U,
  0xbd5a4c9fbe42e8fbU, 0xbdda4c9f3de21880U, 0xbe71b042be086fe3U, 0xbe0489f3bda3b977U,
  0xbc3b1d1abdd280beU, 0xbc3b1d1abd8489f3U, 0xbd9421b5bda3b977U, 0xbd3b1d1abdbb1d1aU,
  0xbd2b85583d8489f3U, 0xbde21880bd5a4c9fU, 0xbe103bc4be8296faU, 0xbdb3513900000000U,
  0x3d1bed9600000000U, 0xbe2b85583dab8558U, 0xbe2f6b49bc9bed96U, 0xbcbb1d1abdf1b042U,
  0xbcbb1d1abe3f030bU, 0x3d9bed963e0c55d4U, 0xbdd280bebbf97c23U, 0x3d0c55d43e00a402U,
  0xbd797c23bd1bed96U, 0x3d0c55d43de21880U, 0x3cf97c233c797c23U, 0x3dbb1d1a3b797c23U,
  0x3c9bed963d69e461U, 0xbe3351393db35139U, 0x3e37372abef7892bU, 0x3cda4c9f3bf97c23U,
  0xbb797c233d5a4c9fU, 0xbde9e461be7d6214U, 0xbdcab4dcbd8489f3U, 0x3de9e461bd9bed96U,
  0xbd9bed96bcbb1d1aU, 0x3e1807a53dbb1d1aU, 0xbcf97c23bd3b1d1aU, 0x3d9421b53d9bed96U,
  0x3dc2e8fb3e1fd386U, 0x3d9421b53c797c23U, 0x3d4ab4dc3d2b8558U, 0xbd9bed963e279f68U,
  0xbd5a4c9f3e279f68U, 0xbe0489f33d69e461U, 0x3d8489f3be103bc4U, 0xbd1bed963c9bed96U,
  0xbe3f030b3bf97c23U, 0x3e00a402bec2e8fbU, 0x3d8c55d4bd8c55d4U, 0x3e1fd386bd2b8558U,
  0xbc9bed963d0c55d4U, 0x3e5e328fbe4ab4dcU, 0xbcbb1d1abdcab4dcU, 0x3d8c55d43d1bed96U,
  0x3d3b1d1a3e5666aeU, 0x3c797c233de9e461U, 0x3d8c55d4U, 0x3e42e8fbU,
  0xbdd280bebbf97c23U, 0xbc797c23bdb35139U, 0xbc9bed963d9421b5U, 0x3de9e4613bf97c23U,
  0xbe4e9acd3dda4c9fU, 0x3da3b97700000000U, 0x3d9421b53d797c23U, 0x3d69e461be4e9acdU,
  0x3dcab4dc3d9421b5U, 0x3d4ab4dcbdf1b042U, 0x3d9bed963d797c23U, 0xbd8489f3bd3b1d1aU,
  0x3d40bd2dbda8a587U, 0xbc40bd2dbdb4b15aU, 0x3bc0bd2d3e64e0a5U, 0x3e7cf84bbd58d4d3U,
  0x3d9c99b53d84820fU, 0x3d40bd2d00000000U, 0xbd28a587bcf0ec78U, 0xbda8a587bdfcf84bU,
  0x3dfcf84bbc40bd2dU, 0x3e108de2bdccc900U, 0x3bc0bd2d3c908de2U, 0xbc908de2bcc0bd2dU,
  0x3d84820fbdc0bd2dU, 0x3c40bd2d3d28a587U, 0xbd40bd2d3d58d4d3U, 0xbbc0bd2d3dd8d4d3U,
  0xbd9c99b5be34b15aU, 0x3bc0bd2dbd84820fU, 0xbc908de2bdb4b15aU, 0x3dd8d4d3bdd8d4d3U,
  0xbd908de2bd70ec78U, 0x3d70ec78bcc0bd2dU, 0xbdb4b15abe04820fU, 0xbdc0bd2d3c40bd2dU,
  0x3dccc9003c40bd2dU, 0xbdf0ec78bc40bd2dU, 0xbd9c99b5bcc0bd2dU, 0xbcf0ec783dd8d4d3U,
  0xbc40bd2dbe9996c0U, 0x3bc0bd2d3e04820fU, 0x3d40bd2dbd908de2U, 0xbc908de23dd8d4d3U,
  0xbd84820fbe4cc900U, 0x3d9c99b5bc908de2U, 0x3d70ec78U, 0xbd908de2bc40bd2dU,
  0xbe40bd2dU, 0x3c40bd2dbdfcf84bU, 0xbc908de2bdccc900U, 0xbcf0ec78bd58d4d3U,
  0xbd28a587bbc0bd2dU, 0xbe9c99b5bda8a587U, 0xbe229f9ebd908de2U, 0xbdc0bd2dbd108de2U,
  0x3e4cc900be9c99b5U, 0xbd70ec783d40bd2dU, 0x3cc0bd2dU, 0xbc40bd2dbd9c99b5U,
  0x3c40bd2dbe1c99b5U, 0xbc40bd2d3da8a587U, 0xbe0a87f83dccc900U, 0xbd40bd2dbc908de2U,
  0xbd9c99b53de4e0a5U, 0x3d908de2bd84820fU, 0xbbc0bd2dbe9390d6U, 0xbd40bd2d3c40bd2dU,
  0xbc908de23dc0bd2dU, 0xbe9390d6bea29f9eU, 0xbe1693cbbe04820fU, 0xbd9c99b500000000U,
  0x3e9996c0be76f262U, 0x3e108de2U, 0xbd58d4d3bdb4b15aU, 0xbcc0bd2dbd58d4d3U,
  0xbcc0bd2dbd28a587U, 0x3c908de23cf0ec78U, 0xbdf0ec783d908de2U, 0xbe1c99b5bcc0bd2dU,
  0x3c40bd2d3d9c99b5U, 0xbcc0bd2d3e0a87f8U, 0x3c908de2be908de2U, 0x3cc0bd2dbda8a587U,
  0x3dfcf84b00000000U, 0xbef0ec78bf3f3bb3U, 0xbe04820f3d9c99b5U, 0x3d9c99b5be108de2U,
  0x3e9996c0be6ae68fU, 0xbe04820f3e3ab744U, 0xbdc0bd2dbde4e0a5U, 0xbcc0bd2d3da8a587U,
  0xbcc0bd2d3dc0bd2dU, 0x3dd8d4d33d70ec78U, 0xbd908de23bc0bd2dU, 0xbdccc900bc908de2U,
  0xbe229f9e3d40bd2dU, 0x3d58d4d33db4b15aU, 0x3e04820fbe84820fU, 0x3cc0bd2dbcc0bd2dU,
  0xbd40bd2dbd28a587U, 0xbe04820fbf181546U, 0x3c908de2bd108de2U, 0xbd40bd2dbe229f9eU,
  0x3e64e0a5bdd8d4d3U, 0xbc908de23d40bd2dU, 0x3d28a587bdb4b15aU, 0x3cc0bd2d3db4b15aU,
  0x3dc0bd2d3e1693cbU, 0x3d908de23d908de2U, 0xbd9c99b53e04820fU, 0xbd70ec783e46c316U,
  0xbd58d4d3bda8a587U, 0xbd28a5873d70ec78U, 0x3e3ab744be2eab71U, 0x3e108de2bcc0bd2dU,
  0xbe6ae68f3dfcf84bU, 0x3d84820fbe40bd2dU, 0xbcc0bd2dbc908de2U, 0x3dd8d4d3be1c99b5U,
  0x3cc0bd2dbd84820fU, 0x3d908de23d108de2U, 0x3d40bd2dbd28a587U, 0x3db4b15abdb4b15aU,
  0x3dd8d4d33c40bd2dU, 0x3dfcf84b3d70ec78U, 0x3db4b15a3e52cee9U, 0x3dccc9003e108de2U,
  0xbd908de23d70ec78U, 0xbda8a5873d40bd2dU, 0x3dccc900bd40bd2dU, 0xbd84820fbd40bd2dU,
  0xbe34b15abd58d4d3U, 0x3dd8d4d3bdfcf84bU, 0x3d70ec783e0a87f8U, 0x3cf0ec78bdd8d4d3U,
  0xbe04820f3d28a587U, 0x3df0ec783d70ec78U, 0x3cc0bd2d3c908de2U, 0x3d40bd2dbcc0bd2dU,
  0x3da8a5873e108de2U, 0xbd9c99b5bda8a587U, 0x3d9c99b53db4b15aU, 0x3d28a5873e3ab744U,
  0xbd28a5873cf0ec78U, 0x3cf0ec783d108de2U, 0xbd58d4d33d40bd2dU, 0xbdccc900bdd8d4d3U,
  0xbdf0ec78bdb4b15aU, 0x3bc0bd2dbe2eab71U, 0x3de4e0a53d9c99b5U, 0x3df0ec783d28a587U,
  0xbe1c99b53d58d4d3U, 0x3da8a5873e0a87f8U, 0xbda8a5873bc0bd2dU, 0xbda8a5873d40bd2dU,
  0x3d310789bc7ce631U, 0x3d639bf9bd3daca5U, 0x3d916ac3bbca51c1U, 0x3d7693a3bdb10789U,
  0x3cd6f6ddbd116ac3U, 0xbd3107893e1c7b3bU, 0x3c17bd51bcbdaca5U, 0x3d84c5a7bd0b1835U,
  0x3e03310300000000U, 0xbd04c5a7bd56f6ddU, 0xbbca51c1bd1e0fdfU, 0x3d04c5a73d4a51c1U,
  0xbe065a4abd24626dU, 0xbdadde42bd4a51c1U, 0x3ce39bf9bc4a51c1U, 0x3e065a4a3cf04115U,
  0xbd7041153d69ee87U, 0x3ded17ce3c17bd51U, 0xbd17bd513c310789U, 0xbaca51c1bdf36a5cU,
  0x3dc3ff333d7693a3U, 0xbe25f7103d9ae698U, 0xbdda20243d8e417cU, 0x3d819c603d375a17U,
  0xbd375a17bd84c5a7U, 0x3c97bd51bdf9bceaU, 0xbded17ce3e329c2cU, 0x3d2ab4fbbc4a51c1U,
  0xbdf04115bdba835eU, 0xbd0b18353d7ce631U, 0xbd639bf9bcfce631U, 0x3de6c540bd50a44fU,
  0xbcf041153d7693a3U, 0xbd04c5a73d17bd51U, 0x3d819c603d7ce631U, 0xbd8e417cbe1c7b3bU,
  0xbc8b18353d0b1835U, 0xbe43ff333dca51c1U, 0xbb4a51c13dbdaca5U, 0xbc8b18353db430d0U,
  0xbd43ff33bcbdaca5U, 0x3d1e0fdfbe04c5a7U, 0xbdb107893d24626dU, 0x3d94940abd17bd51U,
  0x3d9ae698bd7ce631U, 0x3d94940abde9ee87U, 0xbd2ab4fbbd0b1835U, 0xbc97bd51bd916ac3U,
  0xbd0b18353d87eeeeU, 0x3dd6f6dd3e14940aU, 0xbd8b18353daab4fbU, 0x3dcd7b08be0fd61fU,
  0x3c17bd51bdfce631U, 0xbdfce6313d69ee87U, 0xbd8b1835bdda2024U, 0x3d8b1835bd116ac3U,
  0x3d8e417c3d94940aU, 0x3dda2024bdf36a5cU, 0xbe098391bcca51c1U, 0x3ce39bf9bca4626dU,
  0xbd819c60bd2ab4fbU, 0x3cbdaca53c17bd51U, 0x3c639bf9bd97bd51U, 0x3ca4626d3db75a17U,
  0xbbca51c1be426a8fU, 0x3df9bcea3e0e417cU, 0x3d43ff33bde6c540U, 0x3dda20243c310789U,
  0xbd84c5a7bdc3ff33U, 0xbdbdaca53d04c5a7U, 0xbd87eeee3d1e0fdfU, 0x3d7693a3bc310789U,
  0xbce39bf93dc0d5ecU, 0xbe278bb4be098391U, 0xbdadde42bd2ab4fbU, 0xbd17bd513d4a51c1U,
  0x3e17bd513de39bf9U, 0xbc639bf9bd5d496bU, 0x3ce39bf9bd5d496bU, 0x3df36a5cbdbdaca5U,
  0xbcfce6313e065a4aU, 0x3d310789bd0b1835U, 0xbc17bd513d3daca5U, 0xbdc3ff333ce39bf9U,
  0x3d2ab4fb3c639bf9U, 0xbe292057bcf04115U, 0x3cfce6313cb10789U, 0x3d116ac3bd4a51c1U,
  0x3cd6f6ddbb4a51c1U, 0x3d819c60be329c2cU, 0xbdf36a5c3d9e0fdfU, 0xbd50a44f3bca51c1U,
  0xbb97bd513dca51c1U, 0xbdd3cd96bd116ac3U, 0xbc639bf9bdba835eU, 0xbd24626dbdc0d5ecU,
  0x3ce39bf93d50a44fU, 0xbe48bd1dbcca51c1U, 0xbdaab4fbbd3daca5U, 0x3d04c5a7bd24626dU,
  0xbd94940a3dbdaca5U, 0xbdb430d03d7693a3U, 0xbd916ac33d4a51c1U, 0xbd8b18353dda2024U,
  0x3dcd7b08bdaab4fbU, 0xbd7ce6313dd6f6ddU, 0xbdadde423e17bd51U, 0x3d916ac3bcca51c1U,
  0xbdc3ff33bc97bd51U, 0xbdd3cd96be329c2cU, 0x3d639bf9bc639bf9U, 0xbe2920573d43ff33U,
  0x3da4626d3ce39bf9U, 0x3c7ce6313d8e417cU, 0xbd87eeee3e0cacd8U, 0xbcf04115be0b1835U,
  0xbcbdaca53d8e417cU, 0x3c97bd51bcca51c1U, 0xbe1628ad3d17bd51U, 0x3d5d496b3e0b1835U,
  0x3ce39bf9bd8b1835U, 0xbdcd7b083d3daca5U, 0x3d50a44fbd50a44fU, 0x3d639bf93d69ee87U,
  0xbd3107893dcd7b08U, 0x3df36a5cbd8b1835U, 0x3cf04115be1c7b3bU, 0x3d24626dbdba835eU,
  0x3daab4fb3d639bf9U, 0x3dba835e3d8e417cU, 0xbb4a51c1bd5d496bU, 0xbd4a51c13ca4626dU,
  0x3d116ac3bbca51c1U, 0xbded17cebd7ce631U, 0x3c4a51c13c639bf9U, 0x3dd0a44fbd69ee87U,
  0x3cfce6313dc7287aU, 0xbc3107893aca51c1U, 0xbdadde42bd310789U, 0x3dadde423b97bd51U,
  0xbcd6f6ddbc639bf9U, 0xbdb75a17bd3daca5U, 0xbcb10789bddd496bU, 0x3c7ce6313c97bd51U,
  0xbc4c4ced3d78fdc1U, 0xbe146fe4bb4c4cedU, 0xbd9c6ae53d0c74e3U, 0x3e146fe4be0148aeU,
  0x3d8c74e33dcf7e21U, 0x3b4c4ced3acc4cedU, 0x3cb2c34fbd1939b2U, 0xbc65d68b3da2cd4dU,
  0x3d6c38f23cbf881eU, 0xbdfc2ef53acc4cedU, 0x3d6c38f2U, 0x3d9f9c193c1939b2U,
  0xbe0e0d7d3d78fdc1U, 0xbe45ea863ca5fe81U, 0xbda2cd4dbcff6028U, 0xbccc4cedbacc4cedU,
  0x3d8fa6173d8943afU, 0xbc9939b23c1939b2U, 0x3cb2c34f3de5d68bU, 0xbd9c6ae5bd3925b7U,
  0x3d92d74a3d1939b2U, 0xbc65d68b3dd911bcU, 0xbdef6a263d1939b2U, 0x3cd911bc3d32c34fU,
  0xbd7f6028bda2cd4dU, 0x3e0c74e300000000U, 0xbcff6028bb9939b2U, 0x3da5fe813cff6028U,
  0xbd8fa6173cbf881eU, 0xbdbc56ea3d78fdc1U, 0x3d1f9c19bd3925b7U, 0x3d1939b2bd9939b2U,
  0xbdf8fdc13cd911bcU, 0x3d0c74e33d1939b2U, 0x3d82e1483c9939b2U, 0x3d9f9c193ddf7423U,
  0xbca5fe813de2a557U, 0xbe1939b23da2cd4dU, 0xbd45ea863e0fa617U, 0x3daf921c3c65d68bU,
  0xbc65d68bbd45ea86U, 0xbca5fe813d65d68bU, 0xbd9f9c193dcc4cedU, 0x3d32c34f3cf29b59U,
  0xbe17a118bdc2b952U, 0xbbcc4cedbc7f6028U, 0x3d729b59bd3f881eU, 0xbdf8fdc13d8c74e3U,
  0x3d06127cU, 0xbdc91bb93ddf7423U, 0x3bcc4cedbda2cd4dU, 0x3dd2af54bdbc56eaU,
  0x3ccc4ced3bff6028U, 0x3cbf881e3d32c34fU, 0x3dd911bc3da5fe81U, 0xbce5d68b3d8c74e3U,
  0x3d12d74a3bff6028U, 0x3de2a557bdac60e8U, 0xbce5d68bbdaf921cU, 0x3c1939b23d52af54U,
  0xbe42b952be06127cU, 0x3dd911bcbde5d68bU, 0x3c1939b2bd1f9c19U, 0xbd45ea863d6c38f2U,
  0xbda92fb43d52af54U, 0x3b4c4cedbd8943afU, 0xbde5d68bbdac60e8U, 0xbd6c38f2bd8fa617U,
  0xbd32c34fbe0479e2U, 0xbde907bebd92d74aU, 0xbda2cd4dbc65d68bU, 0x3d92d74a3d82e148U,
  0x3b4c4cedbd5f7423U, 0xbd1f9c19be17a118U, 0xbc9939b23ca5fe81U, 0xbe0adc493d9c6ae5U,
  0xbe146fe43d1939b2U, 0x3d8943afbe47831fU, 0x3ca5fe81bcd911bcU, 0x3cd911bc3dbf881eU,
  0x3d2c60e8bd5911bcU, 0x3dbf881e3c32c34fU, 0x3cb2c34fbd1939b2U, 0xbd4c4ced3acc4cedU,
  0x3c4c4ced3d729b59U, 0xbbff6028be345be9U, 0x3c9939b2bd4c4cedU, 0xbd729b593ca5fe81U,
  0xbd6c38f2bc65d68bU, 0x3d52af54be42b952U, 0xbd92d74a3d6c38f2U, 0xbacc4cedbdac60e8U,
  0x3d86127c3d2c60e8U, 0xbe0479e2be2f921cU, 0x3d5911bcbce5d68bU, 0xbcd911bcbd8fa617U,
  0x3d1939b23db925b7U, 0xbcf29b59bd7f6028U, 0xbd86127c3cf29b59U, 0x3daf921cbe3f881eU,
  0xbdb5f483bdbf881eU, 0xbe2465e7bca5fe81U, 0x3cd911bc3dcf7e21U, 0x3bff6028bc4c4cedU,
  0xbc7f60283e0479e2U, 0xbca5fe813cd911bcU, 0xbce5d68bbda5fe81U, 0xbd9939b23e0fa617U,
  0xbe32c34fbe3c56eaU, 0xbdd5e088be2f921cU, 0xbd86127c3d1939b2U, 0xbdb2c34f3dd911bcU,
  0xbdd911bc3d5911bcU, 0xbd92d74a3b4c4cedU, 0xbdd911bc3dcc4cedU, 0xbbff6028bce5d68bU,
  0xbdff60283d0c74e3U, 0xbe47831fbdc5ea86U, 0xbd8c74e33d86127cU, 0xbc8c74e3bccc4cedU,
  0x3dc91bb93d06127cU, 0x3d12d74abd3f881eU, 0x3d96087eU, 0xbd3f881ebd8c74e3U,
  0xbdcc4ced3dbf881eU, 0x3d45ea86bd6c38f2U, 0x3d25fe813cf29b59U, 0x3d3925b73d6c38f2U,
  0x3d25fe81bdf8fdc1U, 0x3bff60283d82e148U, 0x3d9939b23d4c4cedU, 0x3c9939b2bd3925b7U,
  0xbd4c4cedbe1939b2U, 0xbde5d68bbda2cd4dU, 0xbd3f881e3d9f9c19U, 0x3d4c4cedbcb2c34fU,
  0xbcbf881e3c9939b2U, 0xbcbf881ebe1939b2U, 0xbde2a5573d6c38f2U, 0xbdfc2ef5bacc4cedU,
  0xbe2134b33db925b7U, 0x3d3f881ebccc4cedU, 0x3cf29b59be4ab453U, 0xbcff6028bd52af54U,
  0xbe0062bebd2b2e52U, 0x3e66063ebe15c888U, 0xbe60acccbeb087c5U, 0x3d8062bebe5b5359U,
  0x3d55f9e6bbab2e52U, 0xbe9dceb43cd5f9e6U, 0x3dcb47013d40941cU, 0x3d15c888bde0acccU,
  0xbd2b2e523cd5f9e6U, 0xbe5b5359be207b6dU, 0xbdcb47013d40941cU, 0xbcd5f9e6bd8b15a3U,
  0xbe207b6dbe8dc25cU, 0x3bab2e52be15c888U, 0xbe3b3aaa3de0acccU, 0xbe98754100000000U,
  0xbe15c8883dc0941cU, 0x3dd5f9e6bd8062beU, 0xbe7b6c08be4b4701U, 0x3bab2e52bc2b2e52U,
  0xbe3b3aaabd40941cU, 0xbea5d4df3d40941cU, 0xbe25d4dfbe207b6dU, 0xbd0062bebcd5f9e6U,
  0xbd40941c00000000U, 0xbc2b2e52bdb5e137U, 0x3d40941cU, 0xbcab2e523de0acccU,
  0x3c2b2e52be35e137U, 0x3df61296beeb5fb1U, 0xbe906f15bdb5e137U, 0xbe4b47013d8b15a3U,
  0xbde0acccbdc0941cU, 0x3cd5f9e6bdf61296U, 0xbdeb5fb1be15c888U, 0xbe106f15bc2b2e52U,
  0xbe66063e3d55f9e6U, 0xbec340d63d6b5fb1U, 0xbdab2e52becdf3bbU, 0xbcab2e52bc2b2e52U,
  0xbe15c8883d55f9e6U, 0xbeb88df0bf0f18b9U, 0xbda07b6dbd0062beU, 0xbe35e137be0b15a3U,
  0x3e70b9233e1b21faU, 0xbe05bc30bedb5359U, 0xbc2b2e52be60acccU, 0xbdc0941cbe0b15a3U,
  0xbd0062be3e45ed8fU, 0xbd8062bebd8b15a3U, 0xbde0acccbdb5e137U, 0xbe50a0743e0062beU,
  0x3c8062be3e6b5fb1U, 0xbea07b6dbd0062beU, 0x3bab2e523e931bceU, 0x3da07b6d3bab2e52U,
  0xbe55f9e6bd15c888U, 0x3e1b21fabf29d7f5U, 0x3e2b2e523dd5f9e6U, 0x3de0acccbe05bc30U,
  0xbe35e137be40941cU, 0xbea88199becb4701U, 0x3c2b2e523cab2e52U, 0xbeb3347e3d55f9e6U,
  0xbe40941c3d8b15a3U, 0xbebde763bbab2e52U, 0xbcab2e52be45ed8fU, 0xbd15c888bd55f9e6U,
  0xbe45ed8fbc2b2e52U, 0xbe85bc303d8062beU, 0x3d0062be3e0062beU, 0x3d6b5fb13d0062beU,
  0x3e106f15be05bc30U, 0xbdd5f9e6be207b6dU, 0x3e106f153d2b2e52U, 0xbc2b2e523bab2e52U,
  0xbe9b21fabe0b15a3U, 0xbe8062bebf0465d3U, 0x3dab2e52bd6b5fb1U, 0xbeb5e1373e85bc30U,
  0xbcab2e52bcab2e52U, 0xbe0b15a3bcd5f9e6U, 0x3d95c888bd8b15a3U, 0xbd8b15a3be106f15U,
  0xbeab2e52bd2b2e52U, 0xbdb5e137be35e137U, 0x3cab2e52U, 0xbd6b5fb1bd8b15a3U,
  0xbe05bc30bcab2e52U, 0xbe207b6dbf030f77U, 0x3d8b15a3bdf61296U, 0xbd15c888bd6b5fb1U,
  0xbe40941c3e15c888U, 0xbe05bc30bf01b91aU, 0x3dcb4701be906f15U, 0xbbab2e523e25d4dfU,
  0x3d2b2e523d55f9e6U, 0xbd2b2e52U, 0xbd2b2e523bab2e52U, 0xbe3b3aaa3df61296U,
  0xbc2b2e523dc0941cU, 0xbd0062bebcd5f9e6U, 0x3dd5f9e6bbab2e52U, 0x3c2b2e523e761296U,
  0xbe207b6d3d0062beU, 0x3d0062bebde0acccU, 0x3dd5f9e63d2b2e52U, 0xbd55f9e6bdab2e52U,
  0xbedb53593df61296U, 0xbd8b15a3beab2e52U, 0x3da07b6dbdc0941cU, 0xbe6b5fb1bcd5f9e6U,
  0x3da07b6d3e50a074U, 0xbd8b15a33c8062beU, 0xbd2b2e52be25d4dfU, 0xbd8b15a3bde0acccU,
  0x3d95c8883e207b6dU, 0xbdeb5fb1bde0acccU, 0x3c8062be3e106f15U, 0x3d95c8883deb5fb1U,
  0x3c2b2e523df61296U, 0xbd0062be3cab2e52U, 0x3d8062be3d6b5fb1U, 0x3d0062be00000000U,
  0xbd6b5fb1bc2b2e52U, 0xbe906f15bdab2e52U, 0xbd40941cbcab2e52U, 0xbe95c8883e207b6dU,
  0xbda07b6d3d40941cU, 0xbe0062be3e106f15U, 0x3d8062be3dc0941cU, 0x3cd5f9e63e15c888U,
  0x3cd5f9e6bd40941cU, 0xbd55f9e63d40941cU, 0xbcab2e523dab2e52U, 0x3bab2e523c8062beU,
  0x3c2b2e523c8062beU, 0x3dc0941c3d40941cU, 0x3dcb47013d55f9e6U, 0x3d15c8883dab2e52U,
  0xbdd5f9e63e106f15U, 0xbc2b2e52bd2b2e52U, 0xbcab2e523c2b2e52U, 0x3d95c8883d95c888U,
  0x3c81f99fbd9a586dU, 0xbd2278073e1238d3U, 0x3d73b40abe2ea76eU, 0x3ca27807bca27807U,
  0xbe8c211fbe0a1939U, 0x3d32b73b3d73b40aU, 0x3e42f66ebe8a1939U, 0x3ce374d63d32b73bU,
  0xbec7063b3e0e2906U, 0xbe7fe371bdc2f66eU, 0x3b81f99fbcc2f66eU, 0x3d227807bd5335a2U,
  0xbd32b73b3d32b73bU, 0xbdd335a2bea687d4U, 0x3ca27807be42f66eU, 0xbd01f99fbe1238d3U,
  0x3de374d63d6374d6U, 0xbe1238d33ca27807U, 0x3ddb553cbd5335a2U, 0xbd01f99f3e1e683aU,
  0xbea687d43c01f99fU, 0x3dc2f66ebd227807U, 0x3e36c708bd32b73bU, 0x3d9238d33dc2f66eU,
  0xbebad6d53c42f66eU, 0xbce374d6bb81f99fU, 0x3ddb553cbd81f99fU, 0x3d9a586dbdeb9470U,
  0xbca278073ce374d6U, 0xbe6374d6bf00f5acU, 0x3e1a586dbddb553cU, 0xbd01f99f3cc2f66eU,
  0x3cc2f66ebce374d6U, 0xbe77c3d7bd42f66eU, 0x3d1238d33c01f99fU, 0xbd6374d6bc42f66eU,
  0xbd01f99f3c81f99fU, 0x3d9a586dbdbad6d5U, 0x3dd335a2bd227807U, 0xbda278073ddb553cU,
  0xbe0a1939bd5335a2U, 0xbd9238d3bcc2f66eU, 0x3d8a19393d9238d3U, 0x3c42f66ebc81f99fU,
  0x3d73b40a3deb9470U, 0xbee57cbdbe1238d3U, 0xbcc2f66ebcc2f66eU, 0xbd32b73b3cc2f66eU,
  0xbd9238d3be1a586dU, 0xbeb6c708be2a97a1U, 0xbdd335a2bdcb1608U, 0xbb81f99fbc81f99fU,
  0xbd9a586dbca27807U, 0x3e06096cbe9238d3U, 0x3b81f99f3dbad6d5U, 0xbe0a19393dcb1608U,
  0x3c81f99fbde374d6U, 0xbc01f99fbd227807U, 0x3d1238d3be3ad6d5U, 0xbd42f66e3d9238d3U,
  0x3e2ea76ebdaa97a1U, 0xbe8e2906bd81f99fU, 0xbd6374d6bd81f99fU, 0x3d01f99f3d9238d3U,
  0xbce374d6be2ea76eU, 0x3b81f99fbe36c708U, 0x3c01f99fbc42f66eU, 0x3c42f66e3dc2f66eU,
  0x3ce374d6be2ea76eU, 0x3d81f99fbebee6a2U, 0xbeaea76e3d8a1939U, 0xbe7bd3a4bc42f66eU,
  0xbd1238d3be0e2906U, 0x3e5b553c3dcb1608U, 0x3d6374d6be9030ecU, 0xbda278073ce374d6U,
  0x3c81f99fbe0a1939U, 0x3c42f66ebd1238d3U, 0xbdeb94703d81f99fU, 0x3dbad6d5bd227807U,
  0x3c42f66ebdcb1608U, 0xbde374d6bd73b40aU, 0x3ce374d6bd81f99fU, 0xbde374d6bd42f66eU,
  0x3d8a1939bdeb9470U, 0x3d8a1939be1238d3U, 0xbea88fbabe6784a3U, 0xbd2278073da27807U,
  0xbd32b73b3df3b40aU, 0x3c42f66e3e5335a2U, 0xbc42f66ebcc2f66eU, 0x3d6374d6bd1238d3U,
  0xbdeb9470U, 0xbcc2f66ebc42f66eU, 0xbe1238d3be5b553cU, 0x3e1238d3be3ad6d5U,
  0x3d2278073e1a586dU, 0x3c01f99fbd1238d3U, 0x3d227807bdbad6d5U, 0xbe06096cbd32b73bU,
  0x3d6374d63e3ad6d5U, 0x3dc2f66e00000000U, 0xbdaa97a1be4f25d5U, 0xbe1238d3be6b9470U,
  0xbdb2b73b3dd335a2U, 0xbdeb94703eb0af54U, 0xbb81f99f3d1238d3U, 0xbd1238d3bb81f99fU,
  0xbdf3b40a3d227807U, 0x3e2687d43d01f99fU, 0xbd227807bebad6d5U, 0x3e4f25d5bd9238d3U,
  0x3d01f99f3cc2f66eU, 0x3b81f99f3e01f99fU, 0x3d9238d33d81f99fU, 0xbe8811523d1238d3U,
  0x3ce374d6bd9238d3U, 0xbd8a19393b81f99fU, 0xbdd335a23ca27807U, 0xbca27807be5335a2U,
  0xbdf3b40abca27807U, 0x3d9a586d3ecd1defU, 0x3d32b73b3d01f99fU, 0x3d8a1939be8c211fU,
  0xbeb0af543e32b73bU, 0x3e1e683abe0e2906U, 0xbd6374d63d9238d3U, 0x3e47063bbd9a586dU,
  0xbd6374d63c01f99fU, 0x3c01f99f3d32b73bU, 0x3db2b73bbd5335a2U, 0xbd9a586dbd227807U,
  0x3d32b73b3da27807U, 0x3d9a586dbdcb1608U, 0x3ce374d63e06096cU, 0x3df3b40a3dcb1608U,
  0x3d9a586dbddb553cU, 0xbd73b40a3c42f66eU, 0x3e06096c3d6374d6U, 0xbd01f99fbd32b73bU,
  0xbd9a586d3d8a1939U, 0x3daa97a13e3ee6a2U, 0x3e3ad6d53dc2f66eU, 0xbdc2f66e3d81f99fU,
  0x3d8b124f3cd8555eU, 0xbcf73cfe3db96dbeU, 0xbd396dbebe1a861fU, 0x3e396dbebd8b124fU,
  0x3dd8555e3d773cfeU, 0x3c773cfebc773cfeU, 0x3e3d4ab23d67c92eU, 0x3b773cfebd0b124fU,
  0x3e0b124f3d29f9efU, 0xbe4127a63e1e6313U, 0x3dd8555e3d67c92eU, 0x3cf73cfe3db1b3d7U,
  0x3dd8555ebd67c92eU, 0x3de7c92ebc773cfeU, 0x3e3590cb3e0b124fU, 0xbe16a92bbc773cfeU,
  0xbd92cc373d92cc37U, 0x3d67c92ebd48e18eU, 0xbda24007bdd8555eU, 0x3e0b124fbb773cfeU,
  0x3da9f9ef3d67c92eU, 0xbd67c92ebd835867U, 0x3e4cbe823db1b3d7U, 0x3dd8555ebd29f9efU,
  0x3c396dbebc773cfeU, 0xbdc8e18e3de00f46U, 0xbdc8e18e3da24007U, 0x3d835867bc396dbeU,
  0x3d29f9efbd92cc37U, 0xbd9a861f3d92cc37U, 0x3c9a861fbd48e18eU, 0xbde00f46bdc127a6U,
  0xbd396dbebd29f9efU, 0x3d67c92ebde7c92eU, 0xbd1a861fbda24007U, 0x3d835867bdef8316U,
  0x3cb96dbe3e035867U, 0x3db1b3d73dd8555eU, 0x3def8316bdb96dbeU, 0x3dfef6e63d396dbeU,
  0x3da240073bf73cfeU, 0xbe8169edbd0b124fU, 0xbde00f46bb773cfeU, 0xbb773cfe3e0eef43U,
  0x3c773cfebe2dd6e3U, 0x3d0b124f3c773cfeU, 0xbdc8e18e3d1a861fU, 0x3e035867bde00f46U,
  0xbd92cc373c396dbeU, 0x3b773cfe3cf73cfeU, 0xbda9f9efbe9a861fU, 0x3d773cfebe45049aU,
  0xbe12cc37U, 0x3da24007bdef8316U, 0xbd396dbe3d0b124fU, 0xbd1a861f3db1b3d7U,
  0x3db1b3d7bc9a861fU, 0xbe7ef6e63da24007U, 0x3d67c92e3c396dbeU, 0x3d773cfebda9f9efU,
  0xbcb96dbebe4127a6U, 0xbde00f463d0b124fU, 0xbe45049a3c396dbeU, 0xbd9a861f3db96dbeU,
  0xbdc127a600000000U, 0xbd1a861fbdb96dbeU, 0x3d773cfebeb590cbU, 0x3c9a861f3cb96dbeU,
  0x3d48e18ebe54786aU, 0x3c773cfe3dc127a6U, 0xbe9897a5bee1fdc0U, 0x3dc127a63d48e18eU,
  0xbe07355bbc396dbeU, 0xbebb5c38bcd8555eU, 0xbe03586700000000U, 0x3dc127a63dc127a6U,
  0xbe31b3d7be509b76U, 0x3c396dbebd9a861fU, 0x3c773cfebdb96dbeU, 0xbd396dbebd58555eU,
  0xbcd8555ebe035867U, 0xbdb96dbe3de7c92eU, 0x3d835867be9e6313U, 0xbdfef6e63cf73cfeU,
  0xbdc8e18ebd835867U, 0x3d1a861f3e07355bU, 0x3df73cfebdb96dbeU, 0xbd48e18e3c773cfeU,
  0xbe261cfbbcb96dbeU, 0xbde00f46be600f46U, 0x3dc127a63cb96dbeU, 0x3e12cc373dc8e18eU,
  0xbef54e843c9a861fU, 0xbd8b124fbd67c92eU, 0xbe224007beceacfcU, 0x3d48e18ebdd09b76U,
  0xbda9f9ef3c396dbeU, 0xbe16a92b3db96dbeU, 0x3c773cfebe396dbeU, 0xbd0b124f3de7c92eU,
  0xbdfef6e63da9f9efU, 0xbc396dbe3de7c92eU, 0x3d773cfebd48e18eU, 0xbd48e18e3d773cfeU,
  0xbe8546e1bd396dbeU, 0xbdd8555ebd0b124fU, 0x3d29f9efbd48e18eU, 0x3d9a861f3d8b124fU,
  0xbe600f46bcd8555eU, 0xbe8169edbe6ba622U, 0xbd8b124f3d1a861fU, 0xbc773cfebd773cfeU,
  0x3dc127a6be035867U, 0xbe8d00c93cf73cfeU, 0xbb773cfe3db96dbeU, 0x3cf73cfe3dd8555eU,
  0xbe0b124fbe0eef43U, 0x3e12cc37bd835867U, 0xbd67c92ebdd09b76U, 0x3cf73cfebdc127a6U,
  0xbe73600abdc8e18eU, 0xbcf73cfe3d29f9efU, 0x3dd8555e3cb96dbeU, 0x3cf73cfebe48e18eU,
  0x3c773cfe3cb96dbeU, 0xbe3590cbbe8169edU, 0x3e0358673dd8555eU, 0xbe1e63133e0eef43U,
  0x3d835867beb96dbeU, 0xbef3600abd58555eU, 0xbd29f9efbde00f46U, 0xbd1a861fbe7b19f2U,
  0xbd773cfebe600f46U, 0x3d29f9efbeccbe82U, 0xbdf73cfebc9a861fU, 0x3da9f9efbe3590cbU,
  0xbc396dbebd835867U, 0xbc396dbe3def8316U, 0xbc396dbebe3d4ab2U, 0xbe6f83163b773cfeU,
  0x3e9a861f3d58555eU, 0xbdd09b76be8169edU, 0x3d8b124f3d58555eU, 0x3d29f9efbd58555eU,
  0x3dffcaafbc7fcaafU, 0xbddb4004bd090802U, 0x3d5b40043e910658U, 0xbb122aad3d9fdeadU,
  0x3dbfd8033d5b4004U, 0x3e26b8adbca47003U, 0x3e1473583c5b4004U, 0xbded8559bd5b4004U,
  0xbd6462ae3d8d9958U, 0x3dd6aeae3d2d92adU, 0xbda90158bdbfd803U, 0x3d922aadbde8f404U,
  0x3e2fdb58bdc8faaeU, 0x3ca47003bcb6b558U, 0x3c36b558bc36b558U, 0x3d922aadbbdb4004U,
  0x3cc8faaebc7fcaafU, 0xbc36b558bdb22403U, 0x3dad92ad3e147358U, 0x3d76a804bd3fd803U,
  0xbd7fcaaf3d122aadU, 0x3dbfd803bd890802U, 0x3da47003bd1b4d58U, 0xbd3fd803bde8f404U,
  0x3cdb4004bd9b4d58U, 0xbde8f404be1904adU, 0xbcc8faaebd9b4d58U, 0xbd2d92adbd521d59U,
  0xbb922aad3da90158U, 0xbb122aad3e06bf57U, 0xbd36b5583d76a804U, 0x3d122aadbd122aadU,
  0x3c922aadbd9fdeadU, 0xbd2d92adbd922aadU, 0x3d8d99583e4b4359U, 0x3b922aad3dad92adU,
  0x3d48faaebde462aeU, 0x3e247003bd2d92adU, 0xbe022e023d6462aeU, 0xbdcd8c03bd48faaeU,
  0xbdd21d59bdcd8c03U, 0x3d76a804be66ab59U, 0x3ca470033cb6b558U, 0x3d96bc02bded8559U,
  0x3e3fd8033ded8559U, 0x3dd6aeae3d9fdeadU, 0x3d8d99583dad92adU, 0xbde8f404bbdb4004U,
  0xbd6d8559be247003U, 0xbe0fe202be247003U, 0x3bdb40043e16bc02U, 0x3d48faae3dc8faaeU,
  0xbced85593ced8559U, 0x3d521d59bb122aadU, 0xbdc469583d1b4d58U, 0xbd8d9958bc122aadU,
  0xbdbb46aebdd6aeaeU, 0xbc922aadbd36b558U, 0x3c922aad3d3fd803U, 0x3dc469583d2d92adU,
  0x3e26b8adbdad92adU, 0xbc122aadbc36b558U, 0x3d36b558bd8d9958U, 0x3d48faaebd8476adU,
  0x3d0908023c122aadU, 0xbd6d8559bc36b558U, 0xbdbb46ae3e2b4a03U, 0x3bdb40043bdb4004U,
  0x3d9b4d58bcdb4004U, 0x3cffcaafbddfd159U, 0x3da90158bc122aadU, 0x3b122aadbde462aeU,
  0x3d8908023d6d8559U, 0x3d36b5583c122aadU, 0x3c36b5583da47003U, 0x3c122aad3cb6b558U,
  0x3d6d8559be66ab59U, 0xbd0908023cffcaafU, 0xbe122aad3d247003U, 0x3db224033d090802U,
  0xbda901583c7fcaafU, 0xbdb6b558bced8559U, 0xbd1b4d583e1d9603U, 0xbdbb46ae3d521d59U,
  0xbc36b558bd36b558U, 0xbb922aadbded8559U, 0xbddfd159U, 0x3d922aadbdcd8c03U,
  0x3d922aadbe06bf57U, 0xbcb6b558bd090802U, 0xbd8476ad3c5b4004U, 0x3d3fd803bd247003U,
  0x3c5b4004bc36b558U, 0xbdd6aeae3b922aadU, 0xbda470033dbfd803U, 0xbd76a8043c5b4004U,
  0x3d6462aeU, 0xbe1904ad3d090802U, 0x3dc469583e3b46aeU, 0x3cb6b558bcb6b558U,
  0xbdad92adbddfd159U, 0x3d76a804bca47003U, 0x3dbfd803be4220aeU, 0xbc5b4004bde8f404U,
  0xbd521d593db6b558U, 0xbcffcaafbe78f0afU, 0xbe022e02bdb22403U, 0x3d0908023d36b558U,
  0x3e745f59bdc46958U, 0x3cffcaaf3d48faaeU, 0xbcdb40043de462aeU, 0x3d9fdeadbdbfd803U,
  0x3df6a804bdb6b558U, 0xbcc8faae3d6d8559U, 0x3d9b4d583dbb46aeU, 0x3d6462ae3b122aadU,
  0xbdf216af3d2d92adU, 0xbd3fd8033c36b558U, 0x3cffcaafbd922aadU, 0x3d6462ae3d6d8559U,
  0xbcb6b5583ddfd159U, 0x3dc46958be5d88aeU, 0xbdcd8c03U, 0x3df216afbd96bc02U,
  0x3d36b558bc922aadU, 0x3dffcaafbc5b4004U, 0x3dc46958bddfd159U, 0x3d2d92ad3d6d8559U,
  0x3cdb40043dbb46aeU, 0x3db22403bdcd8c03U, 0x3e1b4d583e06bf57U, 0x3d6462ae3c5b4004U,
  0x3bdb4004bb122aadU, 0xbcdb40043d5b4004U, 0x3d8d9958bdd21d59U, 0xbd48faaebd6462aeU,
  0x3cb6b5583cb6b558U, 0x3d521d59be2d92adU, 0x3d6d8559bcc8faaeU, 0x3e16bc02bd76a804U,
  0x3dfb39593d6462aeU, 0x3b922aad3cc8faaeU, 0xbcc8faaebd8d9958U, 0x3cc8faae3e090802U,
  0x3d42f1a13cd4aa82U, 0xbde663623dd4aa82U, 0xbd6663623e3a1531U, 0x3d0dc7013cd4aa82U,
  0xbdf81c423c54aa82U, 0x3d0dc701be123539U, 0x3e35a6f9bdcbce11U, 0x3d9f7fe13d96a371U,
  0xbd1f7fe13d96a371U, 0xbdcbce11bd666362U, 0xbb8dc701bc8dc701U, 0x3cd4aa823ddd86f2U,
  0x3e84ea91bd666362U, 0xbe1235393cf81c42U, 0xbe04ea91bc0dc701U, 0x3dba15313d3138c1U,
  0x3b8dc7013e007c59U, 0xbe16a371bcf81c42U, 0x3d96a3713b8dc701U, 0x3d96a3713dd4aa82U,
  0xbd1f7fe13c8dc701U, 0xbc54aa82bd1f7fe1U, 0xbdf81c42be35a6f9U, 0xbdcbce113e16a371U,
  0xbe04ea91bc0dc701U, 0xbd8dc701bddd86f2U, 0xbd3138c1bd9f7fe1U, 0xbcf81c42bde66362U,
  0x3d8dc7013d9f7fe1U, 0xbe35a6f93d8dc701U, 0xbcb138c13d0dc701U, 0x3cf81c423d54aa82U,
  0x3cb138c1be16a371U, 0xbdef3fd2be503c49U, 0xbd8dc701bd0dc701U, 0xbe1f7fe13d0dc701U,
  0xbd3138c13dc2f1a1U, 0x3ddd86f2bd0dc701U, 0x3d42f1a1bb8dc701U, 0xbcb138c13e4bce11U,
  0xbdf81c42bddd86f2U, 0x3e04ea91bd84ea91U, 0x3d781c42bdef3fd2U, 0xbcb138c1bd666362U,
  0x3d0dc701bd0dc701U, 0xbe6ad19a3cb138c1U, 0xbc54aa82bdc2f1a1U, 0x3cf81c4200000000U,
  0xbd0dc701beb7de15U, 0xbe35a6f9be781c42U, 0xbd42f1a1bcf81c42U, 0xbe007c59be007c59U,
  0x3cf81c42bcf81c42U, 0x3d96a371be0dc701U, 0xbe007c593d3138c1U, 0xbd0dc70100000000U,
  0x3d666362bda85c51U, 0xbd1f7fe1bcd4aa82U, 0xbd3138c1bd8dc701U, 0x3de66362bd666362U,
  0xbd42f1a1beb138c1U, 0xbc0dc701bc8dc701U, 0xbe5918ba00000000U, 0xbe123539bdf81c42U,
  0x3d781c42bd3138c1U, 0xbe6ad19abe35a6f9U, 0xbd3138c13c54aa82U, 0xbc0dc701be04ea91U,
  0x3d96a371bd42f1a1U, 0xbd1f7fe1bcf81c42U, 0xbe5918babcb138c1U, 0xbdc2f1a1be3138c1U,
  0x3e007c593da85c51U, 0x3e123539bb8dc701U, 0xbd1f7fe1be1f7fe1U, 0xbd96a371be0dc701U,
  0xbe6f3fd2bf0cab73U, 0x3d9f7fe13e0958c9U, 0xbeead19abc8dc701U, 0x3db138c13b8dc701U,
  0x3c0dc7013d96a371U, 0x3d666362bd781c42U, 0xbd42f1a1bdcbce11U, 0x3d1f7fe13d42f1a1U,
  0xbcd4aa823d0dc701U, 0x3d9f7fe1bd0dc701U, 0xbdcbce11bee66362U, 0x3d9f7fe13dcbce11U,
  0xbcf81c42bc0dc701U, 0xbe1f7fe1bd54aa82U, 0x3cd4aa823c0dc701U, 0xbd781c423c54aa82U,
  0xbe781c42bd666362U, 0x3dc2f1a13c0dc701U, 0xbdba15313d8dc701U, 0x3d42f1a13d666362U,
  0x3e007c593e1f7fe1U, 0x3e16a3713e2cca89U, 0x3dcbce11bdc2f1a1U, 0xbcd4aa823d3138c1U,
  0xbe781c423d54aa82U, 0xbcb138c13e475fd9U, 0x3d54aa82bec0ba85U, 0x3c8dc701bb8dc701U,
  0xbe23ee193e42f1a1U, 0xbc54aa82be0dc701U, 0x3e23ee193e1f7fe1U, 0x3da85c51bc8dc701U,
  0x3d8dc701bd0dc701U, 0x3d781c42be04ea91U, 0x3c54aa82be5918baU, 0x3e1235393d54aa82U,
  0x3d84ea91bdb138c1U, 0x3e6663623dba1531U, 0x3db138c1bcd4aa82U, 0xbe6663623ddd86f2U,
  0xbd3138c13c54aa82U, 0xbd6663623e2cca89U, 0x3d84ea913d781c42U, 0x3d42f1a100000000U,
  0xbe8958c9bd8dc701U, 0x3dba15313e0958c9U, 0x3d9f7fe13e3a1531U, 0x3dd4aa82be84ea91U,
  0x3e04ea913da85c51U, 0x3e04ea91U, 0xbcf81c42bcf81c42U, 0x3df81c4200000000U,
  0xbcd4aa823d1f7fe1U, 0x3d781c42bdba1531U, 0xbd42f1a100000000U, 0xbdcbce11bc8dc701U,
  0x3cb138c13cf81c42U, 0x3def3fd23d3138c1U, 0xbd9f7fe13ddd86f2U, 0x3dba15313c0dc701U,
  0xbd96a37100000000U, 0x3c0dc7013d9f7fe1U, 0x3db138c13d3138c1U, 0x3c0dc701bda85c51U,
  0x3cb138c13da85c51U, 0xbe007c593d1f7fe1U, 0x3c54aa823de66362U, 0x3da85c513df81c42U,
  0x3d9131763d99426eU, 0x3c810f853da9645fU, 0x3dc19748be09207dU, 0x3d1131763d913176U,
  0x3e0518013d51b938U, 0xbd61db293e09207dU, 0xbd810f853ca15366U, 0x3e09207dbd51b938U,
  0x3de1db293d317557U, 0xbe1539f23d913176U, 0x3d419748bd913176U, 0x3dfa0e12U,
  0xbdb17557bd113176U, 0x3e39864f3e61db29U, 0x3d810f85be051801U, 0x3c810f85bd810f85U,
  0xbdd9ca303df1fd19U, 0xbcc197483e010f85U, 0xbde1db29be0d28f9U, 0x3dfa0e12bca15366U,
  0x3de1db29U, 0x3e1539f2U, 0x3c010f85bd51b938U, 0x3dd1b9383d913176U,
  0xbce1db293e1539f2U, 0xbda9645f3de9ec21U, 0xbd89207d3da9645fU, 0x3c810f85bd51b938U,
  0xbe09207d3d419748U, 0x3d89207d3d317557U, 0xbcc197483db9864fU, 0x3d419748bd71fd19U,
  0xbd71fd19bc010f85U, 0x3de9ec213dd1b938U, 0xbde1db29bdc9a840U, 0x3d913176bb810f85U,
  0x3dc197483ce1db29U, 0x3d3175573d71fd19U, 0x3d4197483d99426eU, 0x3de1db293e0d28f9U,
  0xbdd9ca303d51b938U, 0xbd3175573db9864fU, 0xbd810f853c810f85U, 0xbd4197483db17557U,
  0x3e010f853dd1b938U, 0xbce1db29bd61db29U, 0xbc419748bd113176U, 0xbe051801bdb9864fU,
  0x3d010f853db9864fU, 0xbdf1fd19bd317557U, 0x3d317557bda9645fU, 0x3dc197483d419748U,
  0xbd913176bc010f85U, 0xbdc9a840bcc19748U, 0x3ce1db29bd215366U, 0x3d71fd193e09207dU,
